BCC58C7E
BD81C803
BE47841E
BEA0DF65
BEE42ABA
BEFBE2A9
BE610B92
BE1397A4
BE779A64
BF29F7E9
BE8EA4D3
3B899DF7
BEB16797
BD0B3025
BE0F1087
3CD96D29
BE24CF4D
3C8685E2
BE62F1C1
BE1A3784
BE4457DA
BD165AB8
BDE001C9
3CD34C39
BE5862FF
BE5F47D1
BDBC2FEC
BEFFA982
BDC96A7F
3E114906
3DCBB694
3D494B56
3BB33347
BDC6F014
BDC2A125
BDCC47C6
BDD90CE8
BD7BD422
3C8E5B70
BD37BF96
BD8D1EEB
BEACF5B8
BD9E9225
BBA04876
3E1B3EA1
BCA185AA
BB4F4570
BBE3E885
BD363EC0
BD3AF49E
BD674B8D
3DCE655A
3DE5EF65
3D4C098A
BCFB9957
BD8BF9D3
3E0D2353
3C324DE9
3DB0D72F
BB156043
BC3A2225
BD01E40E
3C8029E1
3D64E9C6
3DD64603
3E0C0F21
3D55CEAE
3DEF5A67
BCC53729
BD8535D4
3E85A0F5
BD625917
3D50D384
3DDF3211
BDA86F70
3929BB06
BD036476
3D79F753
3D936E97
3DFB9EEF
3D88E040
3E38CDA4
3CDF3AAC
BE101EC0
3E19E349
BD57F3CD
3A3363D1
3D1BED0A
BDC90983
BDDD997A
BD70E2B4
3D041385
3DDCBB21
3DD7CDA1
3BE8D236
3E1A22CA
3D0856AC
BDF6A1AC
BD8A9DE9
BE9616F4
BDBE7275
BB8A1F0E
BD2DED34
3CFCA2AE
BD7E7B95
BDA0CAC3
3D0E1A54
BDAD971A
BD96626E
3DD8D353
3E03E68C
BE026F15
BD2CD3E8
BE477A17
BDB280D5
BC32E06E
3D5FA821
3E8ACD6C
BD27E95B
BCCC244D
3C9DB237
3D8A4222
3DF7D645
3DD5D516
BDCCB074
BDE17C7B
BD7A32BC
BE2D44DB
BE267DEE
BCEC3D5B
BD63EEFA
3E31D4FD
BD5BF050
BC90D089
3D959075
3B8D9B56
3D7DB0F3
3E120B18
3D041A21
3D814A86
BD844A1D
BE4ADD77
BE5746DA
3D9C6B87
BD45697B
BD9ABAA3
BCA7838E
BD2A74F3
BDF0AC14
BE1E44EE
BDBBE1D9
BD2111CF
BE9272A0
BE84E0F3
3D092FFA
3D9A2676
BDFDB860
BD2628AC
BDCB9079
BD3E77EE
BDB7A7BC
BDFAE301
BE1FE809
BE8C749C
BE98873F
BEC7E901
BE8DDFE3
BE8FADBA
3E66655B
3D56AAAB
3CD0024E
3D8FA3F2
BD6A9285
BD991C04
BE0E0BEF
BD30BE21
BD8ED9AA
BE660AA5
BE165163
BE1A5554
BE28094F
3B79453C
BE8473EB
BEADBC03
3E6423E6
3C314B76
3E301544
3E212A30
BBD4AD15
3CC83E85
3DAED907
3BFF784A
3D038EAA
3DC559A0
3D134C0C
3E75E468
BDA1FDAB
BB8610DF
BDED8234
BB4117B7
BD830431
BDC6CEEB
BE45BDBE
BE2733AC
BDF7BA3C
BE353357
BE0B38EF
BD32D35A
3C163B41
BCAAC983
BDA068A1
BDBD535D
BE885B17
BE002FBA
BC21C02E
BE99943D
BE9D8423
BEBEFE43
BEB2B40D
BD7EA0BF
BE570635
BD6D6EE0
BDCCB4DC
BE49C5C7
BE0994DC
3E578E3F
3EC2410D
3F05D1E5
3EC8063B
3E54275D
BDB1F84B
BE599C78
BE593B4C
3D7F5CE2
BE2E5E8A
BE53D4DA
3C4F07F1
BE9C8E7C
3D9257CA
3E6CC101
3EABE6DD
3E5FD466
3E1A6BDB
BDAFD48C
BDCE4C88
BE542695
BCA33D82
3D3DA8BF
3E2E49BE
BC732A20
BCB418F9
BE809D46
BD46FA77
3D812D1D
BCD1CD0C
BC83ADC7
BDB961F9
3B2969AC
3E0C53BC
BE0FC3A2
3DBD8890
3E31062F
3E164715
3DC75233
3DC5BAF2
BE6499CB
3C879B17
BDAB7F62
BCC86ED0
BC133059
BDB48749
BC515CAC
3E1C9860
3D9C3BC3
3E629F4E
3E2EA4D3
3CC7EC87
3CC7A1B4
3D0CE712
BE989476
3DFA6204
3D1A3D31
BE1D33C9
3D86C0C7
BD319213
3E58F383
3E9160B5
3E61D8E6
3E3038B6
3CBDD485
BB356EFF
3E096181
BD1C70DE
BE549E00
3B68DFF6
BD1EEDE8
3DEBD31E
3E1793CD
3E0BFCBF
3E8A9285
3E8FF606
3BB623BE
BD8ED215
3D0443EC
3D0A7BF4
3D21C03B
BDDC5415
BD68E715
3E217A2E
3E271C09
3E79AC0F
3E984A33
3E8316DA
3EA12D54
BC7F0441
BD9B7758
BD064230
3A606E88
3E0FF408
3E52E907
3DE98995
BDF08E0C
3C9674AD
3D6EA561
3E43292E
3DFD1D02
3E07805E
3E63F221
BC96EEE9
3D4C427A
3D8D88AB
3DB2F4AF
3D87A20D
3E029FB8
3D56077E
BE04D3D3
BE3DFBC3
BDCDED22
BE0FA0EC
BDB99BA9
3DF6F785
3DDDD975
3D4AA5D5
3D5B6B45
3C880ADA
BD2B0FB4
BCB4F00F
3E5FB9EC
BD787E9E
BE12D21D
BDB1B806
3E0A8BD5
BE0C6B56
BE38D834
3DF522CE
3E073BE7
3E5BDC60
3D7EDE08
BD00F8D2
BB972DBE
BD502843
3D915D55
BDD55F93
BEB4C86D
3E5F6F98
3D6512D7
3D492642
3E1D5A62
3E29585B
3DB73867
BD077B7E
BC6DF9DD
BD14A0D8
BC8E7B80
BDEE1F5A
BDC45A1A
BE33E3EA
BE6E9F26
3C74A2EC
BD932F02
3E4A38A3
3E5E034E
3E2CDEDD
3DD39C37
3C86C857
3D52F873
3E46A18F
BD214C70
3D7C3EA6
BCA96FC8
3BBEE671
BDCB9241
3CF31A6C
3CFA76DB
3DB621DB
BD9CF10A
BE32E3F8
BE306408
BD6ACB0A
BDCE7874
3D157C81
BD4BA67D
3A98312A
3C677FDD
3E05EB1D
3CB0FF1C
3DC34365
3DD08A2E
BC7CCFFE
BCB8A088
BE173A98
BD33E7AA
BE163A10
BE91548A
BF046253
BE847DE4
BDC23CBD
BDB6B3AB
3CC2C10B
3CE3408E
BD69140B
BD860828
3DA921EB
3BE81D54
3DB47C7E
3D246497
BD2878B2
BE6D106B
BE991652
BF058721
BD958FB8
BE82622B
BD7B95B1
3DCF71EC
3DB9B8A2
3E257536
3E8C8B63
3E53DDFA
3E40533E
3D822B59
BCDBF144
3CCBF353
BB0D8339
BDD5ACC9
BE30BC1D
BDEECF5A
BE45DDC8
BDC958BA
3DD724ED
3E6FDED5
3E5C5B52
3ECE5355
3E569521
3E13E37A
3D5CE583
3D1C9E46
3BC69867
3DAC2994
BCC75018
BDAF3845
BE8B1740
BD7F3E4D
3E9251E7
3E101722
3E07953F
3D9953DD
BD088DC1
BE42EB58
BDE79530
BBA771EE
3CE968C1
BD9FA441
BE1A4FD0
BDE423D9
BE5397E1
3DDF2CB9
3E8C4795
3D7F007A
3C4D443E
BD8F3CE2
BEB64494
BE6F5736
BDBCDED3
BCABFC51
3C6CECD9
BE266A74
BDB9114F
BE78683C
BEA87275
BD8B0211
3D0258F0
BE365C21
BE561C70
BE9E3496
BE8FBF43
BDDBBA51
BE564F73
BD5C0502
3CDA77FA
BCDFE56D
BDAF263A
BD519553
BD4CDF39
B83BB459
BD02F55F
BE63848F
BE382A81
BE0A8E5D
BDD11C05
BD07B850
BE847FE5
BD2345E4
BC7A797E
3D032078
BDD4B00B
BE07A2ED
BE8BB2F2
BB35D7CF
3C9499BD
BE818127
BEB07DC1
3DA88ABE
BD93016C
BE2883F2
BE5EB0A6
BD6CE7DF
BCF38DC9
BDA96F35
BE09FFDC
BE381647
BD5BCD23
BCBA42BD
3D17E283
BE30B8E8
BD0D7B63
BDFEF342
BE9F180C
BE8CACEF
BE3BBC98
BDFA970B
BD33B7C7
BD559686
BDB2A36D
BE86DD9F
BD82B868
3DA5E77C
3E22996B
BD04D514
BE1B2A40
BE986169
BECBE5DA
BE6402F6
BDF24057
BC937C44
3D5A1DDD
BCA7A7D1
BD286060
BE0B03B6
BDD31F8B
3D9AF1EC
3E3262E2
BE2A30A2
BE492368
BE0B0F58
BD169E37
3D722E42
3DB543EC
3D81AF8A
3D9E6ADC
BD4CC0B5
3C0BF8F0
BDF505DB
BC08FDF3
3DBBC86C
3A81692A
3DCA8E1D
3D90E656
3E7998CC
3E8B8349
3DF9FAA9
3DE89CFB
3E85EB2C
3E5F6ED5
3E14074C
3D3C2E82
3D9EA11A
BD171C0D
BB261B4C
3DB317EF
3D0C3657
BE9EC1DF
BF06E844
BEA6A553
BDC74B2C
BE055AEF
BEEECFF5
BEF9405D
BDFDCC15
3DCBB713
3CDB0AFC
3E4916B9
3E3ACB9D
3DB1DC59
3D72A7DC
3D6458CE
BE2EEA8B
3BB16074
BD503E88
BE48E56C
BEC3A2EA
BE99309D
BE606027
BDA25572
BEC0B772
3D63CB32
3DB5C3B9
3DB9F2DF
BBF0EADE
3E16821C
3D8C9F7A
BDB25A81
BECDBC31
BF3DFC18
BECC1A8A
BE84CF45
BE68468C
3E1BD2CD
3DE6CCB5
BDDDA24C
3E330423
3D95C564
3E900A92
3E3FA416
3D1B7B4D
3DC1F5D8
3D6F607D
3E97EF3A
3E2E8F34
3E82473B
3E39DBF3
3E8C3C30
3DB0ECD5
BD5B9B26
BD673799
3E7D903A
3D1C9118
BD12C769
3D1ADB0B
3DED9A19
3E5DEB07
3E222E0E
3E9053BD
3E0C12B8
BE51A105
BE242749
BE45D790
BD1A1992
BDE0AC3B
3E4C22F8
3E0BC25C
3D94CB7F
3E275FE4
3DB924A2
3DBE0583
3E6AC93B
3E03D54D
3D80DD45
BE1EA8F3
BD4E8562
BD4FAA16
BDCEEB5B
3D1B888F
3E48E585
3D8842FD
3D7236C8
3E1355C3
3E1C9292
3DECFEFC
3D8F1D66
3CD23089
3E2F919D
3D18C9CF
BD51302F
BDAEA965
3DAABF8A
BD016DC7
3D7C382F
3DDFF24E
3DF72A33
3E69E9C2
3DE19D4D
3CE256FA
BE1748CE
BDFCC698
3CE8F46A
BD388F53
BD0B2FEE
BDA24980
BC238539
BE6EA8A7
3DC4CACE
3B7BE6EF
3E0041FB
3D9F5EE2
3C007E6A
BAE6CC24
BE4A9AD8
BE25F8EB
BD1848AF
3DA97A04
3D6BC575
3D25F900
BD4F8070
BDD6BA4B
BD337F4D
BD305101
3D7B5F32
3D4DCFEB
BCA186B5
BE368461
BE517A55
BD8ECCFC
3D117000
3D0F4EE8
3E042236
3BFEB9BF
3C465DF7
BE13C091
BDC29AB4
BD98D5CF
3D5CB805
BD209E5A
BE0EF9EA
BD9C6618
BE22EECF
BD362E57
BD09C6CF
BD580559
BD4DD4C4
3E01C870
3C97F513
BA9045A4
BDD7BE19
3C867C1F
BDC5BE17
BE0E4EF9
BE1CA905
BE8A4A35
BE3FB8DB
BE3F41D5
BDF28CE2
BE50C141
BD12814E
BC7F3008
BD1D24B1
BE42CB2A
BE0815FB
3D9583D9
BB14D3F1
3CAD930A
BD7D53C4
BDED66A4
BDF97533
BC670BD5
BD12ABA2
BD86AE7E
BE4590B1
BE09F408
BDDF9B79
BE80AA3D
3DFEAAC8
3DB3B39E
3D827A8E
3D799DFB
BDC89B9C
BDF7DDEA
BE01AFBB
BD605A57
BD3F3EC1
BE07B852
BC06B6B0
BD9B7471
BE195D53
BECB42AC

