3D24C1CF
3DB1B165
3E30EF0E
3E8A231F
3E8E61A9
3ED0C397
3E69A703
3D933E41
BC927B35
BD3B7569
3E03A94E
3E32AE17
3DBD6C09
BE001058
3DB58A88
3E12302B
3E5380AC
3E5C6EAA
3CCE89A6
3DFA22E3
3E417828
3D1939F3
BD758CBB
BC9C5561
3D1A854E
39A3413E
3D8A3C44
BB57559D
3D93A3B0
BE2A6A8C
3CF35FD1
3E0BCA28
BC447AFD
3CEED6FD
3D04F0F4
3D00B728
BD128F87
BDF8749A
BDD90145
BCF03C38
BE3F01E1
BD83E25C
BCEA27DA
BEB3F70B
3DAEFECB
BE13080B
3D1EF586
BD35AD24
BDC63463
BC8DBB22
BCA5BD6B
BE2A84FC
BD932717
BD8E937B
BE3060C2
BE005A51
BE0CD327
BEE15019
BD8158C7
BD22C6EC
3DE1B65B
3C989C12
BD87D1E3
3B7820B4
BD20B67B
BD2661CC
BD370CC9
3DB3673C
BD0C38DE
BE635367
BE94251C
BE8A9888
BE979935
BDE62D45
3D754BBD
3D93FE4C
3E062C60
3E33E653
3E201003
3DA3EC38
3CB675B1
3CF313DC
3DE8348C
3D966EC1
BEA9BC4F
BD0F8EF9
BF107B36
BC88759B
3DCB09FC
3DC9FE4C
3E7AD202
3E322003
3E8612BC
3E58E694
3D60B174
3D596495
3DF50F0D
3E035FDA
BEA6DA3F
BDB25C40
BECE44E9
BDDDE388
3CE27616
3CF29DD4
3D992722
3E49E864
3E81441F
BCEEDE85
BD01C1F8
BCD81A47
3C7B0CC4
BD2745FE
BDD9FD0B
BEF403D5
BE9F70FF
BDD1CA78
BE31E05C
BD3859EC
3D52EE85
3E154B1F
3DED61A9
3CFECB4B
BD743581
3C6F6BA0
3E1C7C84
BC73EA5D
3E3609BA
BE84BD36
BEBCA1B5
BE93FF09
BE6CE960
BD78E1CE
3B1755C8
BC9D203F
BD65DDCF
BDB35AAD
3D9B4571
3D1ADE76
3C464D11
BD1561BC
BD0A5515
BE6335F2
BE073715
BDDB9461
BE544DEE
3AAF9B7D
BE233339
BD851460
B9B5EF0A
BC8CE9B3
BCCA30AE
3D8DA2BF
BD5EF598
BD112505
BDB29117
BEE3A964
BEE6078F
BE6728F8
BE4FE98B
BE294FB1
BE04027E
BD6FFB5E
3DA2D5EF
3D06DD1E
3E257D94
3D305825
BEB57D99
BE73ABBE
3BDEB768
BD05E1CC
BDFBCCE2
BE844CC5
BE4EF9DE
BE1C4375
BF18315D
BEED4536
BE6BD248
BE1891A8
BE578408
BE6A2B96
BCC54230
3CB25111
BD82DB49
3CA1B315
3D4DEA79
BE2E2265
BE39FF85
BD85F94D
BE87A1F5
BD92745E
BE9649AF
BEA6BD1E
BE5C4438
BD1D8F5D
BC787DCC
3D61CC3E
BD05B36E
3D9EB75B
BDAB5E53
3D395E71
BE0853D6
BDAB306B
3D96F351
3CF20813
3EA26C62
3E675451
3E4C4D7F
3ECA62B8
3EBF014D
3D34C7CE
3DB44588
3D869159
BE41DE9F
BDF12F1A
BDD32D93
3DBFEB4E
3E800536
3E80F456
3EA1A344
3DBDAC21
3BE178A2
3E5AC5D5
BC9ED0B9
BE426233
3D8380C8
BDD945A2
BDABD9A7
BB06FF88
BCF4B9E4
3E4ABEB9
3E5FD2C2
3E62BB83
3E43EFF4
3E20881B
3D7F5498
3E18558B
BDBFECCC
3D81B292
3DB8DDCE
BE91DDC3
BDFD013E
BC279D5F
3D22622F
3E15C0A2
3E16D3E1
3E0C008E
3DE4E6CD
3DCE0D90
3CDA5FE6
3D1D372B
BCDBBCC1
BC9249B1
3D8BED2B
BE85CF71
BD262A28
BDCA32D7
3E494333
3DFCA6C9
BD4B0D8E
3D945197
3DD5D7C8
BD768332
BE16E7F7
BE0CBF5D
BE0F6107
BE60D291
3BB71DA4
BE022252
BE076B81
BD796D9F
3DA7E67B
3D1F2F4A
3DA016A3
3C923E21
BD60D6D7
BEAAAC1B
BE70D8E6
BDD2E161
BE20B9D2
BE234401
BE264D8F
BDA64BF1
BE050E4D
BC85A684
3DE9F540
BC050F67
BD323BCC
BD8B03B9
BE82E80A
BEB5A98B
BE8D6231
BDA7D7FD
BD0F62E5
BD813312
BDECAD9D
3D4A3326
BD2B0A15
3DFFD8CE
3E0AC83D
3D29AC85
3CF2C8DC
BC4EB95D
BD707B1B
BE5E7259
BE0C17E7
BDCC0DD8
3B886983
3D9148D2
BE41286A
BD745DE3
BD3DA30D
3D0C5342
3DECB984
3DB5A38E
3D6838DC
BD3DA94C
3DC030E4
3CCFC5AF
3E0BA91C
3DBE7F3B
3C830FDB
3D6F3FB8
3DB1BB84
3DA3E6C2
BC4C314E
3D29660C
3D98E227
BD7F1812
BDADC7C7
BE185C02
3D268FD8
3E7DD29E
3D599C2F
BD723925
3A3772BA
BCBDBA2F
BDEF0380
BE26173F
BD5F00FE
BD1D1969
3CD9946A
3D68FD6E
BD9550A0
BD88E907
3C77DC99
3DEFD936
3D1145B4
BD99609B
3D440384
BD6362FD
BD8CB65D
BE001FC0
BD58B1C4
BE254594
BAFA3207
3B651321
BD13741B
BBA2ECA2
3CBF3E97
BCCF5180
3AFF0672
3DAF0F3D
BDBDF508
BD8C8482
BDBCF812
BE3B82E4
BDE5F62B
BE403965
BE3C003A
3BE00FE0
BD73E986
BE07E8E2
BDF6B876
BD34326A
BC8A6239
3D5D62B5
BEA57252
BE220131
3CE5D3FF
BDAB2DF7
BD2BE1F9
BE0E8059
BE8650D8
BE3A9398
BE57443A
BE3F0796
BE30EEF2
BE8126DA
3D6DCD13
BEB534A9
BE790979
3C42C66D
BCAEAD2A
3DBCB61B
3E0353D6
3E923EBD
3E7A656A
3E710859
3E6B0786
3E4B88F0
3E293ADB
3EB2780D
3E840390
3DA80E47
BD0E9424
BC919921
BD169340
3E4A83E1
3E54E241
3E2A5D69
3E15BCF9
3DC87B4E
3DF09226
BD00D05B
3D4C2874
3E2AC381
3E5157B5
3E35E356
BD398554
BD19CBF2
3B6EA8E6
3DFAAC3F
3CE12D95
BB8E4F23
3D2A9CF2
BE09C927
BACC6CA1
BE006A85
BE12EA52
3CCF94B9
BD8A8261
3DA2ED57
3D3EA129
3C714E08
BD26B55F
BCAA79FC
3D2B69D6
BDF354E6
BE11FF4B
BDE2D0AC
BE6E022B
BD382901
BE440CEC
BE229FD6
BE33DD3B
BDE1F049
BC029658
3D8C2466
BE59FBB7
BE02AD33
BD2F8FB6
BDE88DF9
BE070BE7
BE59776A
BEB8FB26
BE92F966
BE7D40E1
BE346A00
BD971E23
BE205C4B
BDAECA3B
BD003822
BDAFF9DB
3CDBE22A
3DEEA575
BD9C5EF2
BDC404B8
BD73DD33
BE60A92B
BE6A2F4E
BE469B32
BD50AA17
3DCA7C08
3C74FCB7
BE659E24
BD6C83A1
BE1715F1
BD252BA0
BC4C5A41
BE0BE0F3
3D6811D5
BDD3B7D9
BDA410CC
3CA60733
BD277BE3
BDAEDBE7
3D2CC833
3DA9AE43
3DF0EFF1
BD887AB9
BD26F6CE
BE2A3A5F
3CAFA69C
3D15FFEA
BD625F0A
3D6CE2ED
3D68CB24
BD394FBC
3DB86698
3C81E6BE
3DE33A49
3DDF0FB1
3DF55BA7
BE0DE453
3A949C99
BEA5D7F7
3DC4B969
3B1792E3
3D3D35C7
3DD273EA
3DE47760
3D3499EE
3DDC1B42
3C72EC28
3D4259EC
3D72DC27
3E499A6F
BE6EC4B3
BDB72C88
BE5371B4
3DFD4E34
3CB11272
BD4E49FE
3E05CAEB
3E12E67E
3D187E7E
3D953BAA
3DA7BD7B
3DF21C21
BCB9FC15
3E04525B
BDC781FB
BDC69D71
BDF4107A
BDE75736
3D26C957
3E2D95DA
3E2C7A8A
3E12B127
BC6C254C
3D2B0C20
BDD3C068
BDA68B3E
BC8FA3CE
BE1C12C2
3D03184B
BC4D67F2
BE03C17E
BEACDD7C
BD7DA2A6
3DBD555D
3E09792E
3DF28B82
3DA55FF0
BDEAAD9A
BDAC5512
BE29D37F
BDC664EB
BE93C691
BD0E40A9
BD846848
3CB52238
BABD277C
BE9459EA
3DC92191
3DB3F21F
3D1F1559
BCA67F2A
BE880DC5
BE8A050C
BE3076B5
BE824991
BE966475
BD56F6A6
BD2E4663
3D127664
BC1E9845
3D0F54B3
BEBA9DA6
BE4A3EAB
BEBC85DB
BEA4581F
BE288FC6
BEAF3DFE
3D5248F5
BE17D4E6
3B31A24A
BD9175D4
3DD4AEE3
3EAF7D72
3E275FD4
3E1AF5D9
3E7B67C4
3E08C240
3D6F1F10
3C956C1B
3D212296
3E891BBF
3D9D8E8D
BE00D124
BE258690
BCD5BD23
3E479815
3C858BA1
3D3F4932
3DD98324
BE0D525E
BD7036B3
3D4517E2
3DF8DF56
BC62CA34
3D7DAAA0
3CBEF051
3D953C20
3E4C4D72
3BDEB421
BD1DA930
BCC70040
BC09F955
3DC6DC7B
BE1DF7E1
BE05413F
BE7A30C8
BDD0EDF8
3BB4C523
BBC63DCA
BCD9711D
3D213E2E
3D3D5445
BCA2A93E
BAFD76BA
BD1BFB98
3D1B29AD
3CA495F0
BE67818D
BED1DA61
BE9B0AD1
BE41BEB4
BD247931
3D4CFB7D
3E5A2620
3E04B334
3DA5B77D
3D792455
3D8BF07E
BDCDC584
BDB8C274
BE0214F5
BEE5370D
BEA40624
BE677149
3C0577C1
3D66C0AA
3DEEA2EB
3E876CAA
3E4B6573
3E75728B
BD425113
3E02CE15
BB71FE82
BCE3F1F6
BEA9687B
BEBC14ED
BF02E10F
BE7C6DFC
BD54B148
3BF0F55A
3E818F0C
3EA6DD86
3E33AB45
BD3E2568
BE8913CF
BD95D804
BDB41FF9
BE338B7E
BE4AAF1C
BEBED1BE
BEB28AA5
BE933DD7
BD32EE52
3E1AA9E6
3E219C38
3E271C33
BE1E524D
BEDD04B1
BEA04786
BDC39FFD
BC9605FB
BDD22D2E
BE184445
BEB32A74
BECD64DE
BE24B073
BD53AEA9
3D8FE9D9
BD29CE5F
BE4AF8D2
BE8B09B4
BE8F945A
3CD53B67
BD5A2E10
3E030738
BDB4CF90
BE5667C6
BE304A85
BE83A72D
BE2F02A7
BC37B561
BD12AC27
BDD68B52
BDAD7E24
BCD3019F
BD1A4F15
3DC8D19E
BDDE1A67
BCAC7519
BDA23BF4
BDA24391
BDF66649
BDDCF7B9
BE0A2FFD
3C4B60C5
3D8FFCC5
BC1DC762
BCCFD7D4
BC04D5E3
3C57F793
3BC142C5
3D7A7EF0
BD1B3550
BD77A295
3CAAF171
BC44E98C
3C072928
3CF89375
3DF0EE4F
3DC0E700
3D838576
3B697D82
BD0D06F2
3D36E948
3DF5FEDB
BC0D7E12
3B353E0D
BCE2B1CB
3C180A6D
3DC1754C
3D9DDF2A
3D492405
3E095C6A
3DAAD388
3CAE023E
3D0ADCE5
BD68367A
3D869598
BDA638B6
BE29B705
BE464864
3A7CFD09
3D1E7F75
3C8F274A
3D76FC3E
3C4A30EA
3E063F14
BC3B0257
3BA75517
3DA9ECC1
3D48276E
3C754C7E
BE5CEF1B
BE4F899C
BEC725E5
BE2B714E
BD8891A5
BE1A0CA1
3ACCA7D5
BD81C39F
BC248D75
3DAF3AF1
3DDA8325
3D39B782
3B2E60B0
BE2B3746
BEF80674

