3D1888C3
BD46E5DE
BDE71928
BDF3AA0C
BD71AD26
BDAF669C
BE17744A
BCA42BB6
3CC42F9C
BD9508DC
BE123C27
BE5DA2D7
BE003675
3E1A7A78
BD92CB56
BDB3BF11
BE730537
3BAED0AC
BD5D2845
3DA85E5B
3D69635F
BE20C987
BD05C57B
BBE62C29
BADCC4A6
BE2401AC
BE65889C
3DD062AE
BE3A8648
BE3CC86F
BE727D24
BD7CFC49
BDFEAFBD
3D9AB0A6
BBA70572
BDD9D722
BDD91439
BDEA8F1E
BDB51CD7
BCD1786A
BE315914
BDAA0F5B
BE7062BA
BE385EF9
BE65DE59
BD04BEE8
BD97F5BB
BBC01B77
3BA691E2
3C1D6B60
BC6513DC
BD87D174
BC679FB0
BDC6522A
BE31892E
3D7FB92E
3BA6A165
BE79FBE1
BE5D00AF
BE1ED7E8
BDB79616
BE08662F
BCC5D1B4
3D9A9C7E
BD00EC5A
BDF8C34D
BB63D6E2
3D6CEDAF
BE017E14
3E1FF068
3DD1D979
BEBD9A08
BE40C8A0
BE2E09F8
BE6EABBA
BE2A7D01
BD1BE4B1
BDEAB518
BDE730D5
BDCA5A72
BE0F51F2
3D88F07F
BD53B59D
3E9639D5
BE8BE6F1
BDCC7D21
3BDF422C
BE429233
BE43121D
BE3AF307
3D72D698
BD62042E
3BC47F63
BDF52B11
BDFA5442
3ADF4C9D
BCC98CBD
3E0F7CF2
BD9BB5A6
3DD0DCD2
BA88B2E6
BDCE7F98
BE166D10
BD933B76
BDFB89D8
BDC4B108
BE18C4F0
BE12EE39
BC4954A3
3CD69E8B
BC913EFC
3E61A2ED
3E2D9FBA
3EFBE04D
3E921637
3DAB1FDE
BE055426
BDDA611C
BE67622D
BE10FC7C
BDA5367A
3D7213D5
BD911272
BDECC6CE
3CF3E54E
BD83D208
3DA88D39
3E76F15B
3EA70D72
3E25DB70
3CFECD82
3DA0036C
BC8BF4FD
3D1EB0CF
3DA97BA2
3D2B0586
BC999BA1
BE09C015
3C66098B
BCA447FD
3D278C28
3DB7867B
3E19F706
3E17A52B
3E44589C
3D2C0D3E
3E21C38E
3D97E59B
3C94D2ED
3D4C3762
3D559A70
3D3AB2AC
3D5B8B4E
3D3874DC
3E0ADC1D
3E0F92CD
3D21C342
BAE00C69
3C92A250
3E1B6498
3E235A79
3DF3CDE0
3E043FB2
3DEF8D85
3E092EF0
3D9A8C51
3E09B0CA
3DA8A4FF
BE2C6978
BE8F5FED
BCBA4755
BCEA94EC
3E50C46C
3E8251A6
3E90BE49
3E7A968D
3E214180
3EAFBA8B
3E46D0DB
3E333DA2
3DB04910
BDB5E3C9
3D57592C
3CE2DC50
BE8969EF
BEA993A3
BE95A4D8
BE86DD1A
3E0F2AEE
3D7D83B8
3D6C0964
BD253B71
3D857E3F
3DCA3FF2
3D3A7442
3D8F01F0
3E261A41
3D9616C9
3E31E6B3
3CE96934
BDDD896B
BDD50ACA
BDA5CC70
3E1CAD14
BC8BA2B6
BE40CC58
3D4BE9E7
BD8D85E6
3D0ABEB7
3E289101
3D09B03D
BDFAF7AC
BE4A50D6
BE89357A
BED637E3
BEB37D0D
3C196A16
3D85B76C
3DFEAF0C
3E989126
3EBC3E4E
3B234CC0
3C77B050
3E66D48C
BD81BF5A
BEA4050B
BED4A717
BE5BF470
BE054500
3DDA2B68
3E87B680
3E302CF2
3E40BC4D
3E440988
3E946FE2
3E37969F
BCBBE5BF
3D86F4D7
BE8F5B50
BDB971AC
BE03B373
BE6212BC
3CD4D917
3DB288FD
3E17A05C
3E40183C
3D29F9D5
3DF93F10
3DB2859E
3D388AC6
BDC83CC1
3CDB9722
BC5B2E3A
BD52EC29
BD9B1A14
BBF075E6
3CBDF402
3D3ACCE0
3E5086CF
3D5C8DCE
BDB9FCDD
BD48A0ED
BD22DA56
3B477F20
3CC08957
BDBA10A2
BE0EFF6B
BD6D080C
BE8977FA
BDFB736F
BE123D61
BE0EC57F
3D96838F
BDE8BF00
BEC3A785
BE9ABF3E
BEA057C6
BE8770E0
BD8CBC15
3E277151
BD8964DE
3E35B69A
3E57D612
3BC2881D
BD4476D3
BD604C77
3C57B05F
3B23F52A
BE4536DC
BEDA5E0A
BEA66410
BEB5332F
BE89E0BD
3DEB8128
BCB22234
3DD766B2
3E0C14D0
3D54885E
BD40D9F0
BDE279D8
3D1362A3
BD2D1F97
BE300598
BE7AC08F
BE2934E0
BE594BC9
BE937F4A
BB2E682D
B6F98720
3E0162AA
BCD36035
3E029623
BD7AA8B2
BE564AC8
BD821706
BDCF08BB
BC278B4F
BDCB929A
BDDC168D
BDABBA81
BDFE724B
BDA5924C
BD6BDB89
3DFB4AAA
BC8297AE
3D5077E1
BDB5191D
BDC05CC9
BD122E19
BE09D879
3C8381A7
3DE4FB50
BBC21F25
BDE29EE6
3D60F5AF
BDC6EBE6
BD5103BB
BD3261FE
3D0B81DF
3E311A6F
BD70D6D5
BE1B5065
BD235557
3CB744D5
3C32B53F
BCC7291E
BD0D58BC
BDE712AF
3D467DB0
BCC4E428
3E108E8C
BCF31393
3CDBCFCC
3BA599CF
BC62671A
BDBB0BFB
BDB57828
BBC24AEC
3BC3CBDA
3C583AEE
3D314239
3DDFC48B
3DBDBA3F
3DC1EA4D
3D2C2D62
BE5701F7
BE294D6B
BDBD3B25
BD6CB9A2
BDFC8C81
BD25F22F
3CB9E3FD
3C9CAE39
3DC8A912
3D0BA107
BC2F6476
3D6D4946
3E17D6F7
3D2D65D0
BD95F519
BD8E6339
BC2E98B8
BDEADBDC
BD1C7BC1
3C85DF43
BD311AF8
3DFC21BC
BCCDD04B
3E0301A0
BC7054FF
3E5261A5
3E556C42
3BECC677
3DDFDD0B
3DD9C847
3DA5D7BC
3D9D81BD
3D851209
BD2DE912
BE5581B4
3DF0FFE0
BE781273
3DF1E69B
3D5C036C
3DE0966C
3DF51F5B
3DF2FBC5
3D14C586
BE22FD21
3D7ABA70
BC932322
BE1909AF
BE12C194
BE03934B
BE4E06FE
BDDF85D4
BD86F845
3D166C28
3DBC3250
BD819AA1
3E025D33
3D6BA0F4
BC33797B
3D662074
3D4ABCC5
BE139C95
BDF41139
BE50CC1E
BE830563
BE9523B8
BE79FB81
BE752297
3CE92158
3D8B3DD3
BE1CA0B2
BCC7AB90
3B9FF50B
3D059E1C
BD3A029E
BD2BAB22
BE1234FD
BE57DDAD
BE56F79E
BE9A3F29
BE935E69
BE5DDC73
3D32AD6D
3CCD0636
3C8E5A2F
BD9F4B71
BE094E7C
3D889FA8
3E08C376
3CE85D9B
3DAB8867
BE4A681B
BEAA31B3
BE97FC61
BEB4E8F6
BE534415
BDEE3A08
3E32C4E3
3D708B43
BD34A86B
3D316FD1
3E2A42F8
3E2BCFBB
3D4CF76B
3E1A409E
BDBAFC5D
3C2072E0
BDF16A18
BEB9E1B6
BE647454
BC95E49C
3D12064D
3D3B26D4
BE22E01C
3DB7FD83
BD0AFECB
3D8375FA
3CD6C54E
3E3BF37F
3D962F7C
3DDDDEB7
3E28CDB5
BDD3B7DE
BE3EBA9E
BD4A0763
3DE117E0
3C94199F
3E37FBC6
3E10F7B7
3D264DAF
BD466A59
3D4E10EB
3E02FFE3
3E306D00
3CDAEE60
3D9AB34E
3D592D1A
3D6BC44D
BD00D8D6
3E9BA94E
3DDB9C22
3EB4D386
3E8B37D3
3D33A0A3
3D9AA439
BD28BB85
3D98A9D3
3E0594C6
BC5C185D
3D112497
3C47972D
3E09EB9D
BD043091
3E126F21
BA703CA1
3DD2021E
3E00B50F
3DAEBE11
3CE060E0
BCA28441
BCCA7828
3D58E9AE
3CA140D3
3DDDAF0B
3D3E642D
BD709C21
BCC8BA07
BD2988CB
3E06D6AE
3D882190
BB7BF57F
3D8121B0
3C35C562
BD7F6415
BD102D8C
BDF591BD
3CC2F921
BC8472AD
3AC95630
BD56C711
3D168201
3D57E519
3E11C1DE
BC637CFB
BC533114
BC39F844
BCD6BCA2
3ACB17B6
BDE0ED73
BDB9055D
BE2517D8
BE66A58B
BE0D7836
3DB53D1E
BD7C89C0
3DAB7814
3D86B618
3D3DDDA7
3E0F52BA
BE02A275
BD26EC28
BDEC13D2
BE3133F8
BE5769DA
BE63966C
BE88302C
BE05759C
BD6A22B9
3E0A3225
3E28E2D2
3D311E58
3E3EA59B
BCC40E15
BEB780D5
BE9E78D3
3A98205F
BE94E06B
BE8CE6D7
BEA9975D
BE9D3584
BDFB9A9B
3D9A4594
3E4E6DE5
3E025251
BDFD8899
BE9C57EC
BC1DE7EE
3D81F764
BBBE6F5D
BDEA807E
3B5CE731
BE7C2318
3CFA9BE6
BE3C6BC7
BDF2882C
3E81B14D
3DF65239
BE32C5EB
BE8FC779
BD01CDD8
3DE745FA
3D2E74E8
BE6D5157
BDCE621F
BE223DA0
BE86D511
BE042903
BE02D27B
3E2A10A9
BB02A18E
BE83ADCE
BE12B727
BE596F95
BC9D9FB8
BDFE2A08
BE815412
BE732FEF
BED77921
BE86A17F
BE058574
3E0CCD79
3E94EC73
3EBBCE68
3E0F455A
3DEE30F7
3D080771
BEE02B16
BDFBF47B
BD9194FB
BE89CABB
BE8A98EC
BDA2FE96
3DE3D5B9
3DF7F619
3E1387D8
3DE34EB3
3E88B0ED
3E5FFD80
3E3827F2
3E33345B
BE85CF86
3C67B441
BD8970E8
BE5A147B
BE154902
BE59DD7F
3DA2D171
3E6813AA
3EC52E85
3E924E4A
3E9F6BFC
3EDD6986
3EAF4939
3D79C52F
BE0DDAF2
BDB130BD
BDA3FD5E
BE75B3E1
BD189A73
BD92034B
3BDD297C
3DFBF098
3E5D4155
3E6D8EF1
3EA92D79
3EBCD4F6
3E4E9DB3
3D98BB89
BCFED3A4
3D85DAF7
3D098367
3D8399E2
3C702A9B
3D14A540
3C8CA31F
3E15BD58
3E47F661
3E55825E
3E1C0EC9
3EA8D612
3E694C17
3E13DEF7
BD603762
3DA94C13
3DF0D158
3E5229FB
3DFBCDFC
3E1E7ECB
3DB02C4E
3DF751A8
3D8DC302
3D12F3D8
BA1E158C
BE14CCC6
BCD4C39E
BD889599
BDEE1253
BC438D01
3DA99B99
3E204ECA
3E83B974
3E1D66FD
3C184FD0
3D50DFF1
3D8C2960
3CA256C8
BE4DA1BB
BEBF870D
BEA76255
BE236B2D
BDD4292A
BC07D0A4
BCC780C5
3E2567E3
3E336B1E
3DFAA8FF
3DA8A954
3C82581C
3D2989A4
BD984199
BE338E77
BE28CEF3
BE6BA239
3D5B80DD
BE1554BC
3E0280EE
BC604CD2
3E0E28A0
3E1A5668
3E34A18F
3D01C017
BDFFE8B8
BDB3D521
BDDB9072
BE2869D5
BE10CBAD
BD913C50
BE067706
BDEFA216
BCFAD47A
3C5E80D5
BC1935FA
3DB20AB5
3C5BA091
3D3B4E91
BDB060B9
BDA923CD
BD5EDB5D
3A91F04D
BE0F085F
3C71F054
3BD3E853
BC750C90
BE502DA1
BDB6B750
BCB6EEB0
3D12355C
BCFD6A22
BD4B4F82
3D82D878
BD9806FB
BD804906
BDAAF302
BC8726EE
3D56645A
3DA01D93
3E24FCB6
BDFB7B67
BDF233ED
3D7E29AA
BBBF00C1
3DB32A94
3C548FD4
BC27D5E1
3D7E923C
3D920106
BD57FBD6
3D9F0894
3E099576
3E120FC4

