3D0DAB1A
3B1CAB50
BE1127C1
BCCE06C7
3DB967F7
3DD0910A
3DF31ACD
BD880435
BDAAE448
3D3FD736
BD2428C6
BE564CAB
3CBC64FA
3CE8DEF1
BE7C7055
BDC458CD
3E4182C0
BC9B29EB
BD2F33D0
BDCED8DE
BD34735B
BD2A043A
3B254ACE
3AF311A0
3D6653C8
3D3382A0
3D8CBB5E
BD2CD593
BE39A7C2
BDBF97D7
3B2EDEB2
3D0C65CE
BDE17433
BDE3866B
3D7C52FA
BD144AC6
BDCB3A1D
3AA01FC0
BD260BB5
BDC4975F
3C853146
BD88664D
BC83D529
3E01CC6F
3DE272D3
BD8D0DAE
BE1AEC59
BE235A30
BE219B09
BE242469
BE034AC0
BDE94EB3
BDE9E434
BD1AE004
BD1BABB9
BD7F27AA
BC70CEA7
3DA6117C
3C55A688
BCCDDA06
BD881F34
BD41A9FF
BDD42BCF
BE5BDE7B
BE1C4323
BE3C96A7
BE2E23A3
BE8D568D
BE3FFB5D
BDB33379
3BEA866C
3E9EB3F9
3DC5DC5E
BDE366B1
3C2809CF
3DC31A61
BE1CBBE6
BE36DDE7
BDCB143D
BCE6DBE8
BE1DF163
BC3B4437
BE91AFA5
BDA7018A
BE093AF5
3E89F092
3E99874F
3E3EE9E4
3E6F16F3
3E386B4E
BCCFCE34
BCBAAF0C
BD215258
BDE336CF
BBE7154A
BCFC8B10
BDBC5FF4
3DAA6420
3E00CF0C
3E9A8239
3E6C1C1B
3E4A1809
3EB03217
3EA397B6
3E7ABBF4
BBE961D0
3CEDD0F6
3D1BD0DC
3D79109F
BD85CD3E
3D4B21F0
3DAF64CA
3DCAEC2A
3E2B4DBA
3C2DF690
3DAAEFBB
3E50DCF7
3E152330
3E23EA7D
3D70B8EB
3CA34B00
3E2397EE
3D474D0A
3BBD87C4
BCDE3E03
3DF248EC
BBC2D660
BE38031C
3BC001E8
3D95CAD7
3D3E4C26
3E112043
3DC3776C
3DCC3B0A
3D3D7C79
3E27C951
3E344BDC
3D410BD9
3E24509F
3DC02B1E
3E085ECA
BE6B3030
BE20D674
BD887824
BC907356
3E11479E
3DD2DA70
3DACC572
3E255433
3E3B1A80
3E04A512
3E571B44
3C6F584B
3EB207A2
BE3E6F0F
BE7E49BD
BD6EE119
BE4EA240
BB46C4FF
BD879EA5
BDC69D4E
3D412DE9
3DC6750C
BD81FC39
3DF5306C
3DBA3140
3E42B977
3E176CFF
BEF90B73
BE7FD9B8
BEC6C786
BEB745B5
BECCCB16
BE9CD612
BDED7CE5
BD1D56B2
BD1F0B03
3D03BF47
3E54C68A
3DFAC901
3E0FE792
BC8E2062
BD646A61
BDD457C4
BE3681CB
BE2A78CB
BEF0F948
BEE6584B
BEF9617E
BEE442BE
BEC2ED0A
BED3AB45
BE4931A6
BC7B1156
BD47A4EB
3D6D80E4
3CA492C5
BCE0F3DD
3CA630AC
3DA954BC
3E6A6B44
3E7F8D41
3EDF377D
3E418249
BE952321
BCAFE0F8
BDEE89F9
BE43EBE4
3D660267
3CCFFBC1
BBE3C2E7
3E45BF8D
3E6AE7F4
3EA596BD
3E31B713
3DE78D95
3DCD32F2
BE90EE2C
BF08B2F5
BE477695
BE6818E1
BE982644
BDCF5145
B79B13C0
BDD6C6FD
BBA61AF4
3DB940A6
BD8F514D
3D552963
BDC5F2D0
BE6E5914
BEE5B8A6
BE1B0CD7
BE5DB4BD
BE1E6E60
BDB52DC6
BD057CAF
BD799467
3D6D29D7
BDE0C6DA
3D19C9B9
3D0B6A50
3E651B14
3DA5F4D3
BDDA1262
BE1F9AF3
BE49789E
BDC783CB
BE29F984
BDDD15E6
3CE972FC
BD71D78D
3E18F728
3D0F6FCB
3DE98E44
3E97A64E
3D6E0D01
3DFBCE5A
3DB55AEB
3D68176F
3CD1AE4F
BDD3B6AE
BE00B21D
3C2BD518
BD1ACBCC
BD1AA3D3
B98A02AC
3E5E15F5
3E9E942A
3E39C6BE
3DE80706
BDC7F94C
BC29A719
BB5F7017
3B9DC864
3D3319AD
3D76082E
3D4F462B
3C97A0D5
BD379FFD
BDF66698
3CE2A36F
BCD79943
BE29C5FB
BE35E404
BE3C291C
BE5405E0
BE24B09A
3DD6C815
3DB4EA0E
3E2DDCED
3DC00C15
BC27A5E4
3CBFE421
BE3F6566
BE33266E
BE06D094
BEA1FDBE
BE519429
BE598969
BCFEDBDF
3DDECC1A
3DFC0353
3DEFAAA5
3D6E61DB
BD3FA7C3
BC8C63D4
3E049156
3D3B4419
3DF7F144
BDCB24D8
BDB53972
BD560C0E
3DC768A7
3DCDD2A0
3DFF8C88
3E25052A
3DA17AE9
BD22F00A
3C0E8ACA
3B0BBA31
3B299D68
BCECDE05
BE3EBB74
B93E548D
3DB56BB4
3DA36E19
3D74045A
3DBA4B25
3D9AEFD6
BCB59E00
BBDC55AD
BE221A14
BDD1642E
BE4BD9C4
BDA80F3B
3E1AB70F
BC950D23
3E03F3F5
3DCAC521
3E28EC03
3C2946C7
3B42E45D
BD4F7CA9
BE22440B
BD91A148
BDF38E4C
BD70A772
BDA31888
3DCBD463
3CAE8606
3D96B461
3E656B91
3E503DD1
3DC990DC
BC823E48
BD7EB24F
BE2D2C9C
BDE158BA
BDEDBCEB
3D0CF67A
BE00BAAF
BE155238
3DB3084B
BC903D59
3E15FF9C
3E2B6C22
BCA84F55
3DB60727
BDA21149
BE0C59FC
BE22DFFD
BE3BD508
BCB25BDC
BDBD1983
BDD89326
3DFEB6C0
3E378E9F
BDDA5768
BE3BCD48
BE0E3007
BE272FAD
BE7FF8A2
BE9F5BF6
BE7C6BD0
BE77DC17
BC7D1BFD
BD23722A
BDF14A2F
BDFA0063
BD247733
3CE4C2CF
3D289CD1
BC678E80
3A8D56A6
3DD6D6DA
3D8B74DA
BC704F13
BD1D9FAF
3AE8C526
BE51C0A1
BE18989F
BE194A45
3D8349C9
BD21E8B3
3E010406
BDBA0E54
BE860629
BDB35D31
3D05B9F8
3DB85771
3D2078CC
3D7EF50D
BC426161
3D3947ED
BE285BA8
BDF87543
3D1D44EE
3C122261
3AC8AF36
BD3783C9
BDA53809
BE0C311C
BDD3F37A
BD989BE3
BDB4621D
3C0F63DC
3DDF060F
3D958D5E
3E0B7A87
3DCC18A6
3E7C4B93
3D8DB2BF
3D14FF98
BCE9AFFC
BD18180F
BE96CACE
BD96DFFC
BD87C181
3D1B3136
3DDE6881
3C8AC0CE
3DF04BCB
3DA76A56
3E032DE4
3D77068B
3E60133E
3D0E3FC1
BDCBA44F
BCA71430
BE265215
BEA6AE8B
BE2ECF91
BDFE3BED
3BF01480
3DE13D6F
3E212E2A
3D175C25
3D30C51B
3DB346EA
BE07F1C8
3DDF599C
BE1765EF
3CD22A46
BD270156
BE8CD4A6
BE03AF4B
BD24F134
BE019673
3DEAF795
3E17421E
BC3A9A90
BC8B6D32
3DA99DE4
BD2ACF60
3DE22C82
3D87AF99
3DA42F6B
BD2E51D7
BD626C8A
BE363FA9
BE22CA02
BE215F43
BE02AC82
3C287C71
BD57608A
3C7D0DE2
BC824A60
BD1314AE
3E415E63
BCBA61C2
BD7932D1
BD7C34A7
BE8330FE
BE73BF81
BE4AEAB6
BC1EF6A5
BE1A09E5
BE7CE7A3
BE5557A0
BE64F525
BEA697DC
BE530015
3E3AFFFB
3E358EF3
BE174864
BE2A7D14
BE7ED8E5
BE4E515E
BCC1E2E7
BCD0D775
BDB29774
BE306EF0
BE5AAF0D
BE725605
BE815781
3D42724F
3E8D5834
39C046C4
3CF0AB73
BD83E043
BD89AE6A
BE0644F0
BD0529FE
BD213A2B
BE59EA9F
BE27637D
BE2D4BD2
BDB7C89F
BDE62EBF
BDCEDA72
3E8CDA00
3E019B07
BDA1D58C
BDF68125
BD300D8C
3D400196
3D6A2276
3D259BBB
3C85A79D
3DD6236C
3E15BCB9
3DEF07DC
3D97F4EB
BDB8B41F
3DA50A21
BDD73653
BE65E148
BE21D225
BC74E2CE
3D09D3FD
BBBB26A4
BDC38FD2
3E090B3C
3E19BFC6
3E6C098C
3D099DBC
3DC608E8
BBC6CF81
3DCECD3F
3D693F0B
BD8EA9CC
BDCF6911
BD55805A
BE32D62F
BE1F4627
BD9BE4B0
3D727A25
3DDE84DF
3E276903
3D8EB2FF
3BA76EB1
3DBAEC6F
3D546906
3D3F969F
3E07580F
3D5C7C05
BDCDDC75
BEB11242
BF006718
BEE4695C
BEA98FBD
BE5677D2
BE541EC3
BE2F7BB0
BA86E221
3E1C5A5A
3DE7EC81
BE8F5DB6
BE226CD9
BD061FBA
3D8561E2
3CD6C406
BC005DF1
3DA7BBFE
BE406558
BE3D9B7A
BE55F4A9
BDADEB35
BE92BA9B
BE5FD96E
BE83DCCF
BEC743D1
BDF49E32
3CD10687
3D8FCD2D
BE40D27B
BE16AED4
3E133E09
3D9B77A8
3CF24EFF
BE131629
BE84BBF4
BE5E7D60
3B13433B
BEA6E758
BDE1C61F
BD192D84
BCD07903
3DC6D32C
3E64CC7D
3E932AC9
3EA0A48B
3D4CF169
BDC6693D
BE638A79
BE404E14
BE6E66E9
BDD8F019
3B810363
BE84A035
BE05A646
3C820424
3E14B864
3E48F19A
3D2A6BE4
3DCB8EB4
3E10987B
3E04B7D1
3DBF8AFC
BE0D7305
BF18FCC8
BEC4F01A
BE847662
BCE715FA
BCB0872F
3E16A307
3DDA8F13
3DB9C283
3E302F89
3D835F99
3D567FB4
3DD22DF4
3D2FF051
BEA75D76
BF108D98
BE0A86BB
BD91C80B
BDCD3B59
BCA73654
3C6DB6E5
3E245A15
3E3D0749
3DF5AE1A
3E30E94B
BC2530FA
3CE6436C
BD36E9EE
BE401D6A
BE51EBBC
3E0B249C
3D88D401
BE3C0A9D
3CAC063E
3DE0B75C
3E0D4977
3E6EBBB7
3E1E218F
3DA7FF1B
BDADC0D4
BD99CAE1
BD16BA68
BE55FED9
BC3E5D06
3E0C7820
3DE56884
BE1C1322
BE4E80B9
BD3BA030
3E1525F3
3DFD25C3
3DA7E1C2
BE4C8641
BE46D8F4
BE6203C6
BDE1C95E
BDB27A76
3E50E95B
3E82834B
3E14A3D2
BE5D5427
BDBE93EF
3C7802FA
BE133262
BE6D0BE9
BDAE1A16
BD26AA56
BDB74418
BCDE7F9F
3D283CE2
3CD52D0E
3E8B05BA
3EB2A8A5
3E690749
3CC55609
3D89D077
BD0C3A19
BE026915
BD4F9507
BDBE9D88
BD7BE272
BCF201A8
3D907FCD
3E1B43CE
3E5EAE72
3EAC0B6E
3E706BBF
3E10FA80
3DA54CE8
BDBB1D1B
BD9F7744
BD036933
BD434C1E
BD44CBA3
3C4E7962
3D6D2A01
3E0CC564
3E6DB51B
3E7D6C8E
3DFE8056
3BE202AD
BD91A8C4
3E217F52
BD1F4AC4
BDB9D4F3
39B9688C
BC93250F
BD88A0D0
BCDAE8EA
3D58A7DA
3D39B3A0
3E8753C0
3E7A3AC6
3DB355FB
3D33E24B
BD8C4902
3E0A302A
3D06E249
3DA704D7
3D07F052
BCA31E2C
3D3E95A8
BD9ECBD0
BC4661E6
3E094CAB
3DAE012C
3D740E4B
3D46289B
BD3946BC
3E289391
BDB2EEE9
BDF20BE9
BDF96906
B985B466
3D170971
3D41CD23
3E2A0BCF
3DAA6121
BD516A44
3CD090BC
3C22439E
BDA1CD60
3C92CDB0
BD1D914E

