BCB1B074
3C89BCE5
BDD4B149
3D3F1927
3CC1997A
BE27CBDD
BDF878B9
3E210647
3E521357
3D0D420B
3D0E82EA
BD453276
BD8067FF
3DCFE3BE
3CAAA403
BE1C3DAA
BEAA38D0
BCED6CDB
3B3F0719
3CCCE898
BD1CD8E0
3D689FF7
BC9321F5
3E360C5A
3D8E3D96
BC7D67EF
BD8D5D05
3D37C206
BD0F09BB
BDA93C6A
BD9C7368
BCFB81F6
3E46385B
3E0C72BE
3E2AADEC
3E0ECF48
3D9152AF
3CE32D42
3DCCBC8F
3D89D7D7
BD579A82
3C65FE99
3DEFDCEC
BE043517
3D843EC3
BDA19745
3CE0BE17
3DB0424B
3DFE1EAD
3E483147
BBD207BB
3D4BFC9A
3AF421F8
3D735C2B
3D807DB9
3CF33C88
3D90EC25
BD406652
BCA7C039
3DB59DE0
3D812CE8
3DA1E30F
3D35623C
3D953572
BBFB32D5
BC797F8D
3B2ACD5C
3DDFAE94
3CC0E0C7
3D8731B5
3D1A7220
3E10B505
3E1E4830
BD003B6E
3C91949D
3D180574
3DA825B8
3D4CC14A
3D7020AF
BBC73C13
3E11BA4A
BDB7E948
3DE06BE1
BE0DEA9F
BCEAD49E
3D62618A
3BE1BF3B
3E05A463
3D9116D0
BDF1E6E4
BDA21315
BC989923
BCFCA5A3
3D190F13
3C95F804
BC241C84
3E16F356
BDF65988
BEA9485C
BE07C5CE
BDAFCC68
3DB6EE40
3DD61956
3D7571F7
3D06D3AB
3BCEE3CE
BD10AA92
BCB03C45
3D11E29E
3D9FEE10
3C581763
3CBB6FAC
BE270EE6
BD4AEA06
3C15A610
3E62B819
3DB9F342
3DA49262
3E3CAD84
3E8BFE8E
BD453C3E
BC8E65C6
BE218750
BD6B0877
BC244CB0
3B8B90CE
3E26B0B7
BD5C73D3
BE9C8A74
BD565496
3D3A1189
3CE22080
3D5940AF
3BFA8FFD
BE159CF2
BDC65328
3D5722BF
3C018BE2
3D71E6B7
BE92A197
BDF63B07
BD33E41A
BDBCF675
BDB9120A
3D995169
BD246BB5
BDFFAB93
BE3B5F07
BE01E3AB
3D2F123C
BC973F65
3D228591
BD188932
BE955CBD
3DE8364D
BEB80A78
BB9BEDC3
BCD85BBD
BD7ADA7D
BDF62495
BDE82E00
3D0183E7
3D7CBE2B
3DD06627
3D35C184
BD12B64F
3C648708
BE4F290A
BED9C68C
BED38DCC
BC3A9E33
BDE76C5F
3B0B48C7
BE13AB96
BD5C5BC0
BE2579AF
3E093893
3DE5F0F0
BCC7A08C
BDC73C04
BF0899E8
BE325F7A
BC344BF3
BD96935A
BE794E3A
BEC7224F
BF15B1A0
BEF2C15A
BECE4BCB
BF0C653D
BEDABBD8
BF0D8D8E
BEA969BD
BE2126FE
BDD082C3
3C060018
BE41FDE4
BDF97AD0
BDD8F150
BE768B3D
BE0221BC
BDDFA29F
BE3753AE
BDC717C9
BE8043B9
BE65DE5E
BDBA5F00
BE8554FE
BE2EB7CF
BE1C400C
BE450259
BE032ACB
BEEBA4C5
BF087213
BEB598DA
BD0B15D7
BE2608D4
BD919717
3E16C209
3D68021C
3D043FD7
BBDE3102
BDBD003A
3CA0A1F7
BE0EC8F5
BEE20ED3
BE517663
BF1D0175
BE9F43C1
BD876567
BB276C87
BD95579C
BE4485C2
BD83A604
BC8DD235
BE52C86F
BCC6DD9C
BCA44044
3D3D8C14
BD14CC1F
BDD15AD1
BCB244C1
BCF9FC64
BDD51603
BE482BA2
BDA38C19
BE3E66D5
BE307266
BD8E73DA
BD8C3055
BD4DF75F
3D577DAE
BDA93B93
BD2B3F83
3CBEEBBA
BE8BA41A
BC8549F5
BE0B77B1
BE7EA613
BE5545C8
BE4168BE
3D345B38
BBE921E0
3C9D6465
BDA495A8
3DCC8749
BD3F3B2A
3BA59455
3E52D50B
BCABCF69
BE05A928
BDFF5D67
BE79646B
BE90EFE1
BDD1B6F0
3DBF2480
3E6A0131
3D86448D
3DF47FCE
3D8731A8
BDE68F5C
BD86DF9E
3CFAC412
3C911F90
BE66E6D7
BE4381E7
BE62F0EE
BDC062F7
3B0ABF0D
3D07EC9E
3DFB4191
3D8E0955
3DCC931C
3D6AD8F1
BE2EAFD9
3D6A7F04
BDB14909
BEA5EF31
BEE7211A
BE22B8DB
BE19AF21
BE193C40
BD073535
BDC65CEF
BB0B73EA
BDD8C289
3D7D86B2
BE04B7F7
BE388C82
BE2C9B8F
BEA92161
BEB5D138
3D7B8D5D
3E2BEB79
3E10674B
BD8F223A
BE46A942
BE3D61C6
BE0CE7CE
BE071435
BD9615F6
3D41F36B
BE23E858
3E03AEA2
BE1AEC07
BC01695E
3E32C97F
3DDC9022
3D9E7300
BDFFBAE5
BE387493
BD8B690D
BDA2CDC9
BCE03711
BBC6A6BC
3DEFE744
BD6B33A9
3DBE8C75
BC4D5F5D
3DADB04B
3E61182E
3E0C16E9
BD17FE8C
BE150D09
BDE0CA14
3DB07708
3DD0E3A5
3B5E2261
3DA23EC2
BDCC1708
BDDCDE3B
3D9B7F5F
3D43B90A
BC38E6AD
BD3F802E
BDE522E0
BC762448
3DE20E3D
3DF4AB8C
BC609D38
BD0DD2D4
BCF8C6A6
3DCA5F47
BE337EBD
BE4D7DB0
BD1236CF
BD26E56B
BD9F9410
BE6BB0ED
BD579248
3C7D1A32
BB954C37
3CCB2155
3CE69AB7
3D38A2EC
3DE8660F
3D9603C8
BE412C9C
BE5744D9
BE39C08B
BD29827C
BE83DDDC
BCD4EA78
BCE30F2F
BCEF78B1
3C1CEB5F
3DD5AE6A
3CD2F6BF
3CCE6F6D
BA9AE945
BE8156C0
BEAB6550
BE08417A
BE41C3E8
BDD9E8D4
BE057BB5
BEBB0E48
BEA66534
BE8C8E17
BD4029F1
BD192D9A
3D2A8BBA
BDEDF0BA
BDC01E82
BE5D04A4
BE04814A
BE3B4C45
BE811767
BCBC480B
BC5C4DFE
BD00DBCA
3E1EC7A5
BBBB36FE
BD75EF9B
3D887232
BD2CA864
BE10641C
BE33F216
BE64CCEF
BE007999
BDC14336
BE9FF274
BD1D6DD3
BD547882
BDC34FCE
3D137E1A
BA9AC1C2
BD1D5762
BDDCD9AA
BE02F82C
BC4996C5
BB4B4DB7
3CA1EC71
BE2E67CB
BE45FE35
BDB417B1
BDED71CF
BDAA8107
BDE32659
3CFB7286
BD3538D4
BB0AFC5A
BCB5676C
3C05FBF0
3DBFBB7C
BD6F6A6A
3E346685
BE0154A4
BE62BEFD
BE287CE5
BC82C70D
BD06FB4B
BD873DA0
3B846873
BCE7FDAF
3D3E54A7
BD1A21D1
3DD12170
3DBE1B52
3E0928DA
3E15F197
BE65323C
BE2B49F6
BE11A3A7
3DA54B61
3CDDD728
3E557610
3E187768
3E6B072F
3DA152C7
BD89B7D1
BB40AF31
3C745B16
3DB3E1DB
3CE3E5B9
BCEBC8E5
BE83A7FE
BDA5883A
3E0072F3
3E160B73
3E56ADC2
3E88FE66
3E946883
3E049EA7
BE15DABE
BE20B570
BE9516FD
3D5182E9
3D16AD95
BDFC1483
BE9EF8D6
BD6B0B08
3E3FCCE5
3E2BB6A5
3E2E81A3
3E5B34CF
3E0E970C
BCE7DC7F
BDA40540
BD78C662
BCACDDDA
BD95225A
BD344C0E
BE6EB09C
BE23D9BB
3B67E098
BDE6F601
BD83641F
3D317A9C
3E1349DD
3E034156
3E31CB18
3CDDDA05
3E106781
3DD6E7C2
BC98E31B
BDD4CD2C
BEB87790
BE720546
BE8CF61E
BE43640E
BE4AB641
BD9FF487
3A255707
3E41B494
3E4AAD0E
3E0465AE
3E2CC422
3DA75EA2
3C32DE68
3E0A1E2A
BE84B621
BE636142
BEA4569A
BDAB20B0
BDDF3A31
BC8C36B1
3C9C08F9
3DC703F6
3D973C4F
3D52546F
3CCBFBD3
BD0C49F8
3D638C7C
3D42431F
BE92A2EB
BEB52D50
BEE936DE
3E171ECC
3E38F74C
3E714E8D
3E10B6CE
3E12397D
3D9C5BF9
BD5DD518
BDA1AD66
BDEBDA33
BE2402AB
BE3ED2CE
BE49D206
BE401E57
BEA8A391
3E3BE5BD
3E5AAA4F
3DCCDA77
3D8B73EE
BD3BF922
BE1CBEB8
BE601B1F
BE7AF806
BE07B376
3CD758A3
BE8ED8D0
BE8B08AE
BE83AA95
BE3040FD
BDFC3C5E
BF005292
BEA805BE
BE96B49E
BE9D6697
BEAF0030
BE8A8CB7
BE927A82
BE354763
BE4ED9B1
BE38374A
BE90E7EC
BCEE5F77
BDB3B815
3CB18F8D
3D04DD97
BE64B88A
3D93BCA1
3D16ACE1
3D48A7F6
3E00A3EA
BDC84203
BDF57056
3BA126A1
3D81CDEB
BE0724BE
BCE634CC
B9C9094A
BD951FB0
BCE1BFA6
3DFB4FDC
3E46E91D
3D24B599
3E554A58
3D86D932
BC156C3B
BEB604B3
BDAFF67D
3E0FECEB
3D224125
3C53F9C1
BDFF80F1
BBB89F79
3C81004E
3E95D927
3EA7BEC0
3E9A00F9
BD40B0E3
BE882246
BE5EFD8E
BDE97A1A
BDB8A5FF
3E5D4AE6
BCC7C80F
BE25E656
BE66EBF5
BCC9364E
BD913343
BDBA622B
BD6AE2E2
3C82C89E
BD8024B4
BCD271BE
3BEA3FDB
3E4F73AC
3CAE7193
3E01C5E6
BD790C9D
3D9ADF72
3BEA9A70
3C7077CB
BD27B5EE
BE3F9291
BCB1E719
BDB4E5B5
BD26D18F
BDE10359
BDCDB669
3B981C28
BD7214E2
BE16C369
BDA61951
3E202EFA
3CA4CD90
BDAACAA1
BCB3B0FC
BD8BC36F
BDD5D907
BD7ADF14
BC611AE6
BD75C285
3CA41AB2
3B2995F8
BA942218
3BD07C93
BDA893E2
3D2F69C7
BD3A5C1C
BD163FAD
BC307969
BD84C2E6
BDB232DA
BE5B77AA
BD729527
BDE6DE5F
BE3B2FE0
3D2E4485
3E35ECE2
BAC37C9D
3C6F4412
3C82BB1F
3CB0FE5C
3D89F20E
BD323DC9
BD174A4C
BD2F2090
BDE0FE5C
BD7F47D8
3A6FA38A
BC71C860
3E2E583D
3E07BC50
3DF39DB4
3D4B7435
BE57011B
BBB47ED6
3D3108DC
BC95E30B
BD007270
BE700D23
BCFD8D7C
BD0DD138
3C9A06B5
3E0BA1F7
3E2FE27C
BD1A91C0
BE01D300
BE938D56
BE208BA3
3D6DB88C
BDA94CD5
BD456AAB
BDD98EA1
BE2F2F5C
BDF42794
BD8E6F8B
BD276FD9
BDAA8A45
BD928210
BEAE8CCC
BE031386
BD0B9BCD
BCB6F76F
3C9A57A0
3CAB5514
BDE59086
BE15B366
BE248A97
BDD6A24A
BE100CB8
BD314D37
BDEB41F0
BE0A10C3
BD63F307
BE02BC24
3E0B6A82
3D9AE7A7
3D03295D
BCFBF003
3D486FBD
BCDD5877
3C88279E
BD405137
BCDBE7C6
3DA03D85
BCA4A3F7
BDA4E230
BD9BFB77
3C0082F9
BD03CDF5
3D61E64E
3CCE98AA
3D5B4865
BC977698
BD1F9B3F
3DA9A14F
3D330DD5
B98CCA96
BB92C5C3
BD5C0C2C
3C48805E
3CF14FCC
BBFBD772
BDD5184E
BCA794E6
BE1AE510
3C41CE59
3D60247C
BC725E1D
3D8FD652
BDB40CF4
BC866959
BD8AA77A
3DA9B40A
3DBC7B60
BBEA093D
3DA4825D
BD392F4E

