BC78E479
3C9DCAC5
BE0C3B03
BD497C26
3E3E0BB9
3CAC1D90
BD6A92DD
3D554AEE
3C7E3DA1
3D89ACBD
BD67DA43
3BCFBEE9
BE872728
BEBE09A1
BD892E2A
BE8C8D4A
BDD4C242
BE39B09F
BDE3C2D8
BCD1A487
3D21B560
3DFD129F
3D89ADE4
3DA985CE
BCACAEDA
3D542D17
BCD00B72
BD613225
3E79C695
3E1611FF
3E0E0A41
BCBEA0DA
BE4D9C6E
BE41836A
BDA0A7D9
3980544D
BD3113B6
BD33936E
BD72FB43
3D80DFB9
BB61E2D8
BDCE137C
BE04A2A2
BE223FF8
BDE54044
BE0A8FDD
BDABEE52
BE5ED085
BE8DB5C7
BCC8E150
3C5D50D7
3D5B905F
3E23B04C
3DC61ED5
3D7E6770
BE560B3F
BE776050
BB6AD33F
3E28E209
3DBB355F
BE011D30
BE4043D9
BE3BC80B
BD67024E
3E1093A0
3D12749C
3DC4727E
3E3C5CDB
BD76CF9E
BEB4079C
BEBF5EC7
BE892039
3D019446
3DB90BC1
BE4CA03D
BE416840
BE2980D7
3D675DD8
3DDCBDFC
BDBABC38
BE71D2B1
3BBDE641
BD88118F
3D8751EE
3E2B5802
3E0614B9
3ECFE33B
BC934DE7
BE9D1B48
BE1911A4
BD89F438
3D661F43
3E515ECE
BE627302
BE77EF6E
BDD37201
BE7138DA
BD89E0D6
3E0C4CF3
BE4E0FE0
3E763D2D
BE5B829A
BEE27FAB
BE5875BD
3DBF84CC
BCF93E34
3E45E221
BE10C215
BE2BABCD
BE051D99
BE41ACFF
BD6BAB17
BE7FF070
3C1CEF22
BE8A8CB6
BE5DDAAE
BE5FBBAD
BE39BEB0
BD5E3AB0
BD4DD836
3D7056B2
BE90D48B
BD82CFD9
BBA459D2
3D45FB04
3D810B5E
BE8E1777
BE0BED3D
3D974B0C
BDA57C7A
BD009448
BDD37B27
BDC6386D
3DF33D95
3D44769E
BCD8B17B
3D5A990F
3D882057
BDA9805F
3E060C6C
3DEFAEA3
3E3576FB
3DE404B4
3D8BFDDC
BCF34056
3D6D0E13
3D4898E4
3DDBB287
BD686BBA
BDF8CB27
3D01B98F
BCE9F616
BD2D1121
BD137F59
BE30AAA7
3E088272
3DF60681
3C349D42
BD9A480F
BBFF47F5
BD9FABB3
BDDE9C76
BF05D804
BEE896AC
BE02560F
BDAC340A
BE1F2098
BDF5E484
BE9999DC
BF0A6A9D
BE63C110
BE726589
3CAFB8C0
3E02C2FE
BE7B9473
BE1277A5
BE8D7307
BE222618
BD8AFAEA
BE499333
3CF47C3D
3DD8594B
BD620CF9
3B5685DE
BDE5919E
3DF56E86
3DF4000C
BE688470
BD2A0033
BE0C8FB8
3BD736B2
3D877255
3DF7B814
BD9860CD
BDD6BC55
3DAC1BA2
3E5AB9AF
3DEAD9D7
3E28ACD4
3C1C1455
BD9E27C1
3D1CA6C7
BD11983D
3E23E18C
3EE16F2D
3E65D3ED
3E5FA68E
3DB97F20
BC8BC5E5
3E18B7A0
3E2AB87F
BC15475A
3E330D54
3DB878B1
BD934273
BEAA1827
BEBD7638
3E3BBDD1
3ECBF24C
3E423BAE
3D0F1D3B
3D8ADB39
BE2AFE21
BCF5A164
3E236D18
3DC61281
3DAFDA6E
3D6375A9
BE8681DE
BEA0254C
3DCDFD96
3EC17268
3E8CFE97
3E168902
3E2C115E
3DA69276
BDBE3273
BD12F213
3D892DCE
3DF7FE12
BD228B2B
3D28C908
BE9B1645
BE51EBC6
3C01033A
3E9BAFD9
3E8BC665
3E202279
3DB44346
3DE884E1
3E1ED8DD
BD3A6CBB
3DA27A5E
3DA52B50
3D526288
BDB94023
BEBEC6F5
BE8998EB
BDCEC609
3E2FA181
3BAD16E9
3D4ED351
3CAB18D6
BC9797F1
3D656BD4
BE2636BF
3D278317
BC653C77
3BD41808
BDC7D8D9
BED4D8B5
BDB2FF39
BDF44D90
3DDCDF18
3DEB28AA
BCCBF688
3D32E835
3D3572B7
3CCF7203
BE0E5843
3E698F4F
3D3B89CE
3E1D4F5B
3D6F31AB
BEC36A72
BC553F07
3CEE8128
3E3FCB9B
3CFDA46F
3C24B481
BD1E20A8
BB9F3B1C
3DA5B5A8
BC363CEE
3DDFCB23
3DA9FE99
3E981A8A
3D658C50
BDFBA20C
3EC3D0C8
3D9B1647
3E5C41DB
3E55378E
3D8A219D
BD2419EA
BDAF323D
BE0C3328
BD6BFE87
3E167338
BDC35C9C
3D47CD54
BE5F6EC9
BE00E21E
3E9699A7
3EA89F8B
3E2BAA03
3E3B1513
BE17A92E
BE97FAE7
BE399205
BE662908
BD33A500
BDB1FA4B
BE2EFD81
3CDDC656
BE986BBE
BE83D1EB
3E839B9B
3E739FEB
3E250AE7
3D558A42
BEA2CDD3
BCA428D3
BE164D64
BD0B0059
3D21A933
3D6FA5FD
3D5C7B04
3D11C0BF
BE264D8E
BD43ACC6
3D9A7B8C
BB984706
BD9F7473
BD8D8B37
3C5B8A30
3E1AF460
3DE12473
3CCD23B9
3DC8B78C
3CE75049
3DA3B796
3C953B61
3DEE041E
3DBCDE66
3DC794DD
BA903B93
BE28F677
3D6F3DC6
BD3D9C90
3D070C6D
3D7EA929
3D277207
BCB4E801
BBA35F97
3E18955E
3DC0B939
3E86E117
BC1C8F41
3DDC8A14
BE08D7C3
3B3D7F2A
3D86A2A5
3C3633FF
3D722DB6
3D8179AE
BE07E6BF
3DB91923
3C0CDD9C
BD62E760
3CA4C413
BD648262
BDB2115F
BBEE7B44
BE3F4DC9
3CCA59B6
BDAFBED1
BDF1A2BA
3D326F0C
BE0570D1
3CE4CC20
3D88648B
3DA04D65
3E221FB7
3DC889F7
BCC5738C
3D745186
3D91C702
3E28F4C8
3E242072
3E0CF7D1
3D890B0F
3E2E7D56
3D58332C
3E5A1EF4
3DB219AE
3E09FA9B
3E48D556
3DB3ACCE
BCD77FAD
BBEF189D
3D8DF6A3
3E36C2D6
3D8B7CFF
BBDB16BA
3E7E0C47
3D49FA4C
3DF7B39F
3E5AFF01
3E152C8D
3D88E245
3DF88090
3E3139A3
3CCAB80C
3DF4AD97
3DC86498
3D634F41
BC8C0A3E
3DADBC85
3E2DDFCB
3D151505
3D45DEFC
3DDF8CED
3DA6403F
3D628595
3C9A5986
3E309643
3BA895A2
3E21C4BD
3DAB65CA
3D532672
3D87A83E
3C65ECA1
BDA0AB7A
3CF959F2
3DD57D81
BE556B2A
BB630800
3D0AAC1F
3DAA57ED
3DF20772
3E6AF4DD
3B1DD929
BDD1F94F
3DCBA508
BDD7683D
BD13E91C
BDF75CC4
BDD24558
3D17B413
BE677E66
BDF4B00D
3DD17FF0
3D965304
3DA578BB
3DFC5A02
BDD4E918
BE2DECFF
BD1E3AD4
BCF8B930
3DC91B01
BDD65EFD
BE9BDA97
3DC50520
BD9DBF79
3E17A476
3E299B6E
3E471E88
3E34159C
BE0580D8
BED89460
BE21CAC7
BDABDE33
BCEB0E20
3DE557A9
BE3B5AF0
3BAE874F
3CF22DDF
3B3AB924
3E1D1643
3E0350D6
3C6330AC
BE30798E
BE0C4734
BEE9E758
BEC23BD9
BD18FD32
3E17FC88
3DCF78C6
BE579AF4
BE2CAE71
3CF764AE
3E5C8438
3DFA682E
3D05DD9C
BE9FF199
BD8F6CA4
BE08AE8C
BEC59CB2
BE8E51D6
3D81489E
3DB82D93
BD9DC27E
BE7911E7
BDD355E5
BCF68148
3E55BC71
3E4596DC
3C1D7EE6
BC2B6CA1
BAD87F4D
BD8F3556
BE042E6C
BE8111BA
BD335547
3E22F03B
3D5CA199
BDF39A4C
3DBAB4F9
3D37AFB8
3DAEFF0B
3E1EDAAF
3E2D55A1
3E4145D0
BD006C87
BDBF1BE4
BE0EC859
BE7D3D02
BE0E920D
3E65289D
BC143A89
3DAE662C
3DEB7D3A
3E1514FD
3DEA3566
3DF9A944
3D7989E5
3D18CD2C
BCABEDB2
BE0C101F
BE17F357
BD498D04
3DFE2C1A
3C702F7B
3E1AB60E
3E1C837F
3CEB9460
BCEC7168
3E84209D
3E135B0F
3E5EE6D4
BAF5CCD6
BDD99A5B
3D8649B1
3DA21988
3E28330B
3E7833E2
3E688C97
3DEF183D
3E4A4C96
3E1B1030
BE3C8739
3E852A3A
3E4CF3DB
3E36F742
3DDC80D2
3D39A22A
3E6537C8
3E6F75D3
3BE69C1E
3E241D62
3D9C295D
3DAB7904
3E80DA60
3E87C9F8
3D89FC94
3D839A73
3E0FC541
3DDF3E0E
3E2F6E67
BE6222C6
BCA879C7
BC0AD98F
3D288396
BBAB369B
3BE02F48
BD808465
3BF77564
3C11BB9E
BD19FF58
BD879647
3E0CCCB7
3E46F6E7
3E6AAD98
3E064182
BDE82E30
BDA33C4B
BD987D1F
3DF53EE2
3D9998AF
3E98DB8D
3ED0516B
3E874F67
3D40F040
BE6EB24F
3DFE2CD3
3D7D8F1F
BE1C08FD
BD9CA112
BE1E6FA8
BEA08638
BEBBB346
BEF6014C
BE1076D6
3E0528B4
3CB4C6A1
BDCE7726
BE772E74
BE6F14A1
BE0CB215
3CACE861
3DDB26A6
3E04E4F8
3E14E3A8
BC1277AB
BE94869D
BD933A37
BD03A6D7
BE1613DB
BE9A984F
BEB522CE
BE8C1FE6
BDF33C3E
BE34028E
BD63B0DB
3D39709B
3D729301
3D65AC7A
BDC3D9F5
BDDDC25D
BE02123C
BE64BB0F
BE4E3913
BF1AC822
BE84E1FB
3D8FF3F8
BCCC81DE
BD6265BD
BCA9A009
BD95DCCA
3D42B61E
3E03A5E8
3C4D037B
BD74A5DC
BDA8B78B
BDD08B9F
BEADBC71
BEF990A0
BE94DE6F
3D36A3FB
BD78BEF7
BDCDF6B5
BDE49EC7
BDB45898
3D990291
3DBCD55B
BC9F508D
3CB2B975
3D996003
BDE41B0B
BECFE59A
BE9AB865
BDA588BC
BD50285F
3DE2392D
3D09840D
3D7D0AC1
3DA490C8
3CBD9FA7
3D30F722
BD85B8D9
BD8A7078
3D008D8F
BE7BBF86
BD258643
BDB6BCEA
3D5B8D29
3D670696
3D9AF592
3CECFDBC
BB0887A5
3BFDDAFA
3E92CD55
3E0DF701
BD8CB933
3D8C553F
BD22733C
BD322A45
3DE59E20
BCD9CE06
3B9DF252
3D01EAC1
3C16B670
BE0D1560
3DE23DED
3E3A66C5
3E60D0AF
BD5BFEDD
BDD13715
3CCD95BE
3DAA30B1
BD7ED4F4
3E2B0851
BE747424
BE4B1DC3
3DBB6692
BD984CC0
BDAF29BF
BEB13FEA
BE15EE65
BD7A5D41
3D79C32E
3B666A8C
BE089D81
BCC0CC02
BC0393C8
3C2F103F
BD82EED1
3D967587
3E1C9144
3DCF5349
3C6D130F
BE106D4D
3D34C9DB
3DE34893
3D389942
BB290FE9
3B6461F5
3DDE17A2
3D9B9F14
3D8FE957
3DB4B31A
3DB37045
3E1D1F14
3E2DBA91
3E09B9D8
BD95EF8C
3D4C12D1
BC05E8CA
3C983F21
3C832D61
BD64AC42
3D2319F4
3CBBF392
3D9D0EC6
3DBB0F69
3CED1CE5
BCC17862
BC92531D
BD36CB1A
BE7CE1DB
BDA5E1E1
BE05EFDF
3CA58788
3DA37C46
3C8572CD
3D1104C3
BA785962
3CEB6E4F
3D1C1F8C
3CD2C10B
BD10ECD0
BE55A13C
BE97C6B0

