BD328AC6
BDFA755F
BE48A81E
BE909016
BE23CBAA
BEA4AEE3
BE9E6169
BDB512EF
BDE644D4
BE39690D
BE6037AF
BC901619
BB24211F
BDBE0D07
BE0529B3
BE09C214
BE3E015E
BD2A5281
3C6A3DF0
3E06E8D0
3DEA38B4
3E6D5BB3
BA8B0F10
BDB195B6
BBE18D3C
3BDADA60
3DFBB67B
3E18FF6E
BD68D1DE
BDA378F9
3C48BDDA
3C3018AD
BD844455
BDAD18F5
BDF709B4
BC697C37
39664F5B
BBF58379
BDA27EF7
BCE6234F
BCB8CCE4
3E4E17A1
3E4F60D7
BD68F5ED
BDAFB80D
BD48F8A5
BD5B176E
BCB1F9C5
BDD90CA4
BE889330
BE6C23ED
BD622E44
3CB1DD90
3CFFAA3F
3D9B295B
3D4CE61A
3C8DA233
BDBF82E2
BDD32680
3C1154CD
3D6FE949
3B7FCEEA
BD194A2D
BDDCD55A
BE34E504
3DF8C372
3E2471C8
3DF6DA8E
3C94B919
BBC68E3D
BE266EAF
BEA76889
BDE2F913
3C343A4B
3DC23567
3D16C036
BCC8E8D0
BE085018
BDE6059E
3C720AB9
3C439451
3E3C5D71
BC82B629
BE598454
BE0D418D
BDABD8BF
BD13C23C
3D930EE6
3CDE9EC8
3D87DF7E
BCC3BA2E
BDC565FF
BD034BB0
BB65495A
3D160700
3D01A4BB
BD04F950
BD84C7AA
3E616468
3C9764DB
3E8520AA
BD6431B6
BA8CC0B5
3DB4F858
BDAC64A8
BE6D5704
3D978645
3D4418F1
3DCD1501
3D866AD9
BA644C07
BB8F50D3
BE77B1E7
BE065620
3D90463F
BBB5C39A
BD298CB5
BD173D41
BCE3A8FB
BD2F7DE0
3E4681C6
3CAD13BC
3D996D35
3DF51790
BD429156
BD2E0CCA
3D875F22
3DCD2B2D
BD83BFE7
BDC30F03
3CC436E0
BD8D1A6B
3DD23D7A
3C944B48
3B195A7E
BDB4CD4E
3D44D1B3
BD18505B
BD874D7B
BE735593
BE8033CD
3C952413
BDC38283
BE8532AE
BE26C2B8
BDDC94AB
3B39A151
BE051B4D
BDF3EA5F
BE51BBF1
BE93567A
BE10C4AC
3C2E0C0C
BE020332
BECB386B
3D2CAAE0
BAC3464D
BDC4D800
BDEE466D
3D72AE5C
BD4BAF73
BDDC16DD
BDA963AE
BE48095F
BE8F5033
BD1A0C00
3B9E50CC
BE5AE355
BE92CB34
BC4B9D25
BE8ACBAE
BE0EC648
BE7B09BD
BDE841C6
BDB0C2CF
BCFE8ADE
BE0999B2
3D3E89A4
BDD7E640
BE2F3FB6
3CF750D8
3D419102
BC895CC2
BE011687
BE9F9435
BE1D91B2
BDC1D127
BDE140F5
BEADFAB3
BE3965F3
BD96CE6A
BDDBEBC2
BE40C6A2
BDCEB18E
BD36BA06
BD2B18E1
BD9FC74A
BE200568
BDA4C861
BD54F1DE
BE599A55
BEA48337
BF05E4EE
BE79D28A
BDC9D3F3
BE71B1DC
BE573CE7
BE4F146C
BE101B64
BDE2D3AA
BE095F03
BE697637
BECB0E40
BEA13287
BEE4F9EB
BEDE2159
BEED1035
BEA0597B
BE5E029C
BE56751F
BE854D64
3D2D94D2
3E0D750A
3D354746
BE46BF90
BE8250E3
BDA69777
BE9CBF3F
BDF7FAA7
BD3C6A06
BD4EA993
BDE3DE47
3D89BEEB
3E0FA9F1
3DD153F9
3D448F75
3E05294B
BD35E08B
BC612D4E
BD4B3FE5
BDE25757
BE826C69
3E65BCAE
3EA4C2B9
3EAA3CE1
3EB8CD25
3EACD1FE
3EB9DE9C
3E09FF65
3D7C6263
3CC3926B
3E7946E2
BD80903A
BD145B2F
BCD4EBD5
3D92A1E7
3E05E547
3E41FE81
3E839447
3E7ECD80
3E7D2C91
3E7D8DCB
3E275BB0
3DC7F8E3
3DD24718
3DECCA49
BE65D693
BE4C4B70
BD713C51
BE4A810C
3B3B3329
3D83168F
3D717DB6
3E74E359
3E0EFD3B
3E6A9A28
3C2970E7
3D872A6E
BBDFF742
3CCE9840
BD6C2E5A
BE01B3B9
BD874EC2
BC92B04D
3C7481AE
3E15FC88
3C6D0A76
3CE35307
BD7D85DA
BD575E96
BC93BCD5
3D609ABA
BDA85052
BE2DD9B5
3DB754A2
BDE05D39
BE2151C8
BCF4D140
3CDA529A
3E0EE6BF
BCE64330
BE87030D
3C8DE7C8
3D7B20B5
BD67E1D6
3DDAC846
BD50FF30
BE293A52
BD02D209
BDB7584A
3CB2D610
BDBBE891
BDEC240F
BE2F69A1
BD84CB5C
BDE5AB37
BBD9F1C0
3ACC843B
3AD55D88
3D9241C4
BD525ECA
3C24FA16
BDB1AEA5
3CCAF72A
3DC703C0
BE881AD4
3CBC66BD
BDDFD672
3D1025F3
3DA45721
3E1D1EA2
BD7D3FB5
BDE79924
3CFA9C3D
3E0369BE
BD44C995
BDF9A38D
BE3416A3
BDEC3665
BE7806D7
BD705FA4
3CF80904
3D929B90
3E00B5DC
3E01C780
3C89D6D1
BC704EB1
BDD92451
3CCB6432
BE5582AA
BE9C3CEB
BD991918
BC707FCC
3E0968D5
3E444B7E
3E3702C2
3E184374
3DE99F35
3E07E7E7
BD1539C1
BDBC4A7A
BD5873E1
3CF57321
BE19E27B
BE9A7C07
BE643414
BE37058F
BD2850BE
BCE355A1
3D4335A3
3D77BC9C
BCFD3F2D
3D5B746F
3D25C813
3DBE3640
3D942373
BDDB9104
BE812A79
BE3245B4
BE1AD16D
BE4B3E94
BD86EE31
BCADAD98
BC297698
BDFC1DFC
3CC52F87
BDE92663
BDE16982
BE15A0A3
BE8E3D4E
BE6D74B6
BC938514
BDCF1C4A
BCAB5A86
BDDEF233
BEA77353
BE7D690A
BE7FD8C3
BE3B3C98
BE93F05E
BE870255
BBCBD418
BDA51258
BDC73176
3C7C24CF
BD26FD2F
3CA56866
BDFF00B5
BDBD5BD1
BE225BB3
BD4B0CBD
3D19BE34
3E6306DD
3E18D20A
3E520411
3E61D1AA
3E925AD8
3E5175B0
3E852A1A
BE106FA3
BD42B8BC
3B9811C1
3D4D5709
3D865A0D
3D05E022
3DA0E9BD
3D73BB1C
3E1F3421
3DBF2C69
3E6F10F2
3ECB4CF0
3E970958
3E1E7D9B
BE1DB916
BD3C93F5
3E07885F
3C467A4E
3DB9CD22
3E01BF9B
3E05DE1B
3CBBFB75
3DE757E9
3D3B6C86
3D21FDCC
3DC41B30
3DBBB238
3DC96F6E
BDD6A4DD
BDBDBAF1
BD3AFD6F
BCF45EC3
3E4D9F2A
3E5DE9B3
3E2B270B
3D13C8D7
BBDF256F
BD77D4B5
3C120826
3D95B6EA
3D599A89
3E3EE806
BE1403CC
BE673D5C
3C4D9570
3DADE68A
3E3CE675
3E53FD6D
3DA0EB93
3C7C2D9C
3C85654F
3D0C882B
3DC31CB1
3CF6C705
BEBE8E7B
3DB3DD76
BE166525
3D465F26
BE151B06
3E18C4E0
3E34BF7E
3E076CC2
3E318E64
BCA49E5B
BE19A74F
BCE4B6D6
3E0B5B91
3D90BA35
BE2C85F1
3BC7780C
BDC6E73A
BE0F2C6A
BDD38758
3C4668A9
3DBC106A
BC810EC1
BD14E9DD
BC3D0219
BDCB09A7
3E1D3FF2
3D31382D
BC8D4D92
BCC83A2C
BD0E17DA
BDD67A84
3CD8CFAF
BDADDC31
BCA6873A
3CC481DD
BC84D07E
3CA68EE9
BE085229
BE4329FF
3D7BA858
BB799465
BDCE7CB5
3B49AAFA
BE5717F6
BD87D7E8
BCD28B7B
BD6E60C4
BE497AAC
BD271B43
BD86FAFE
BE18BE7C
BE2FAC58
BDAABF03
3C9AC7D6
BD845318
BB8B2C4B
3D704582
BE36363B
BDBE3283
BE16A55B
BE93D441
BE50D012
BE4FA7EA
BE87E8C0
BEB629FA
BE86FC47
BD0A1587
3D0B6BB2
3CF867AA
3D446B2E
BDBB298D
BE0D4A34
BE117FD3
BDC6C16B
BD30F10B
BEC14228
BE582EDF
BE861E7A
BE96B114
BDF3604D
3D00A0EA
3E5C9284
3E398546
3E64BDEA
BD1F6091
BDBE57E6
BE159C0C
BB569676
BDA164C2
BEBF50C0
3CB90552
BD21C293
3DC63F0D
3E5E901B
3E37E4DD
3EA10BA2
3DF34540
3E373B66
3D296353
3BD5CB30
BDAA60DD
BDF6FBF1
BDB7F0F9
BE536D82
3E1CCD3E
3E0E2675
3E1E387C
3B6CECF1
3E182A1E
3CF752A8
BD9E6774
BDD5B641
3D95D994
BE36A043
BD608646
BDE66E78
BDD62E85
BDBC826B
BE50D1A6
BE982D5E
3A93F7C6
3D8C18ED
BD050F62
BD78CAD5
3E3585C5
3E367488
BD63B86A
BCF894D6
BD5DC5A3
BE58D01F
BDC0B9FB
BC7C94BF
3E4092E0
3C9D43FD
3E12E93E
BABA79C9
3E7C94A7
3DC8B98A
3E99E758
3EA8702A
3E9CB8AD
BE4909C8
BE155CB3
3D572315
BCFF9DC5
BDA23871
BDE1D366
BD8505BF
BE1FD3F7
BEACAAC6
BE25CF5A
3D8EF8F1
3ECE3E9E
3EB96D87
3E6A05FC
3D21F703
BE0F942F
BD8F80EC
3C0096EF
BE23F2C4
BE71BB60
BD528BB7
BD76EA87
BE98FB6A
BEFE90C1
BE90016B
BE195AB6
BE712695
3CB24BB6
3DEE33AC
3D66597D
BDA3F417
3DB81254
BDA33A15
BD56FC5B
BE2CB74F
BEF2ED34
BF5D91B6
BF0A6CBE
BEDBAAC9
BED4F88A
BECE4AF4
BDC06485
3E266796
3E050E41
BD5D5398
3D32CE80
BBE14BA9
BE1219D5
BEDD0DA4
BF03E971
BEB5175F
BDC435AF
BE453B41
BEC37B5D
BEA1577E
BD1A67CA
BC254DE8
3E2DDCF1
BD087452
BDD284D7
BD97D2AA
BE63A448
BE828C32
BE69D6BB
BE14135D
BD9D91DC
BE262DBB
BEA70AB0
BE6A5AF8
BD86AB6B
3C50B557
BDAC5195
BDA50931
3D4F0864
3CB90057
BD99B324
3D8C154D
3DA21D6B
3D4BAE92
BC1A4F11
BDEDB958
3E316DE3
3DE9173B
3E117698
3DF42A11
3CA3D3CE
3DCFB704
3E31626D
3D93C7DC
3D48CFDE
3D8244B8
3D941CA7
3E0B4C49
3D497509
3E258C08
3D00467E
3DB8F806
3D75F8AD
3CDBA985
BDDB863C
BC7ACA07
BD879037
3DA8AB1E
3CA6F5E7
3D40FA09
3D32DC35
3DC65250
3DB545C3
3BE8A94C
3DBDA968
3D0C5A45
BD1BDD00
3D37A5E8
BDE4870F
BDCF68E9
3C6D1B61
3C9EC2BF
3DD07669
3B5F0746
BDD5D8A6
BB2661C0
BD815843
3D8EC7DD
3D2F005D
3E1CB691
BBAA05A6
3CC636D8
3D2E4CF8
3D65EBE1
3E103E0B
3E18338D
BD0A8700
BDF87062
BE44FC39
BE1CB405
BD96654B
BD8DC499
3D1B1898
3D4BE779
3DB63948
BD45802A
BE314038
BE699A23
BDFAA095
BD1EED5B
BD19AB2C
BDB5423C
BE056B77
BDDCF174
3BD35B91
BDA585CA
3D8AAD14
3CB0C20B
3DCA6BB1
3DF661F3
BDCD84AB
BEB67B50
BDD8B12B
BC7FE613
BCECBCCE
BD6E07AC
BDD0C165
BD9E3B02
BD740D28
BE1138DC
BD891226
BDA338A7
BD8823CE
BD8F9DD7
BE0A1F40

