BE0AEA50
BDFD9EB8
BD4C8904
3D1B44A2
BDA0A17C
BE2A479D
BC8F48C4
BE5D372E
BE1CEBC7
BD663414
3D7B92F6
3E56BBD9
BBD0BEE2
BEF430A7
3DBB82F5
3D995489
BD5F19C6
BC5FF26D
3DD9DB6D
BD78C133
BDB7213F
BDBA8851
BD59FF32
3B710527
3D826102
3D5082F6
3E22C2AB
3C129162
3E750AE5
3E2AEDA8
3DCF241A
BD881F3A
3D0D0D0F
BE02C2CA
BD9BD2FC
BCFFC633
BDAA5A36
3D9C9B62
BD0605E0
3D8A0F59
3D860B0C
BDF9CF91
3D27A92B
3DAC4501
3C1783A3
3D8FA98C
BB310E14
3C6DF9A3
BE1A6075
BD8CA468
BDB05BAE
BDA6354F
3BAEDBE0
BD804011
BDC23BED
BD93215C
3E283F27
3E4DF7D9
3D8500CD
B9D786F6
3D9026D9
BC5B1470
BDFB1688
BD091F91
BCB599AD
BD943B94
BDBA0FDA
BE788BBC
BC9C636B
BED610EF
3D85DBD4
3E424174
3DFADA27
BDFD410A
BDA8E480
BD9F078F
BBC7EB83
3DEB362E
3E053EBB
3C6A4A53
3D7D3811
3D776C7F
BE931114
BEEB2211
3BD9957C
3E771302
BCE731E3
BE23AF56
BE98C1C4
BDA3C131
3D9C75BB
3E5D9B35
3DAA653F
3D183040
3DF7E192
3D096148
3D415699
3BCF0FB2
3D57B481
3CA020BB
3D805104
BE0A6E1C
BE61F5A3
BE8B3769
BD0BA4A7
3BC866B9
BC472318
BD45297D
3D6DEF6E
3DCC733B
3DDE20CC
3E213905
3DA5364D
BDE38EE0
3DB8AB6F
3BB01AF2
BCA09DF4
BE3E45EC
BE531D71
3AD91043
BE39031F
BE0DBD80
3DC9DA1B
BD423AD3
BBEC5155
BD120D1B
3D1AF1AD
3E1EB490
3D6D7CEA
BD3FE1DD
3D938E05
3DA2BB10
3B9BACDA
BD919E69
BDF39222
3BD7D38D
3D6F412D
BD283DA9
BDEAB80F
BE6BC04C
BCAF4C85
3989CDCF
3DD4CBBD
3DBA633A
3DAA9B22
BBC2F3F8
BD4033D0
BB3F65CC
BD895119
3DDF65F6
3D7F302A
3D3C9FB2
BE410E8D
BE72AF5C
3DFE4583
3E206402
3E09D8B7
3E1DBA51
3E2FC6F4
BD124D25
3D2FAA1D
3DFEDE20
3D383E54
3E23ED60
3E0A43DD
3D4AA05E
BEBE5BE7
BDB5B5A0
BDCB6ECF
3E88E9C0
3ECAA5EB
3EC05CF4
3E854D85
3EBEB773
3E754372
3ECD75BE
3E8C2478
3E82453C
3DA5F567
3E05CB81
3C2BEF0C
BD9C37EF
BE633722
BEB21389
BD85BF6C
3D2B4727
3DC34B96
3E15541F
3E325BE3
3BB69679
3DB7169C
3E4CE0F4
BCE02296
BDFAF50E
BE044CE6
BE53D447
BE380D95
BE41342C
BE0335AC
3B5FBF14
3CC926FC
BE1F3A68
BDC6F7C0
BE82107F
BE91218D
BE9894F1
BE87FAAA
BE11C2D6
BD931CB9
BE641995
3CDAEED3
BC3115C3
3DED8D3C
3E028314
3F0D91F0
3F009302
3EAD2474
3E4A649D
BEF2AB5E
BEEAEF91
BEB30BA6
BB9E4D92
3C883F44
BE028545
3E736894
3E2B9876
3E8667AE
3EA627F4
3EECF0CB
3E86FC52
BE1B2BBD
BE2B8C87
BDE40E54
BDA08DB9
BD97CBB1
BCF36C61
BD9B5E6C
BB8966C7
3D804DC1
BC766474
3E4590C3
3E014796
3DCB3BC9
BD96F947
BE1C6F43
BE031178
BB8C912B
BB9317BD
B95A9D2E
BDE501CF
BD94385D
BD619818
3D8F6D23
3E342380
3E864E1C
3E253107
3D304D8F
BD9D28F8
BC70AB24
3D9B7F9B
3D09FB61
3D83BA32
3D51155B
3DA77EAE
BC30EA35
BE6C4773
3E00B6DE
3E7FC6B0
3E2B9780
B9EC765E
BA67E4B0
BBEB4CB7
BD0EE2E2
BD48F430
BD0EAEF4
3DFAC88C
3DB7D1A8
3D3708F5
BBC606ED
BE9462B9
BC965BF7
3D66EA22
3EB0074B
3E280D28
3E5808A7
3E1732C1
BD0D6FAA
3C9AE07F
3A4E6676
BD625852
BD52E2CD
BC16AB3A
BE151B07
BEC2721F
BE4DACE5
3BD53621
3E33DF03
3E120DB1
BD0C3EE2
3DD53242
BDF86A81
3C9D0167
BE0EE84B
BD8CE35C
BD7C68B4
BE3EC0E2
BD74A6E2
3C9C770E
3CD98FB6
BCE50F9D
BC940C9B
BE91FF27
BE324806
BE994679
BEB49BD6
BE0D6122
BD2CB695
BD750EE0
3D389AC0
BDA4BD3C
3D4394BE
3D244176
3DCBD665
BCAA73A1
BD39DB0F
BE77D0E2
BE40112C
BE4D5F02
BEA083A0
BE60AFA5
BE1A2736
3CF5C022
BB54A4D5
BCFE024C
3D8384B1
BD483414
BD9B05CF
BDEEEE8A
BA94DEB2
BD3380D3
BE3C45D2
BE91B412
BE8FAACA
BE5DF053
BD20A096
3E0804AE
3CDDA1AE
3D4A0D90
3D54790D
BD840FEC
3D777A8A
BCF3DF89
BDBE0005
BD94CA94
BE7448E8
BD4738BC
BE5D05D1
3DB94045
3D6F56CB
3CC96814
BD8DAAD9
3CC4502B
BC8ED254
BE5EAFE0
BC381E99
3E00E6DE
BCEB5913
BE03413D
BD669963
BDA0B70C
3D683F5D
BCB4C81D
3D93A6D6
BD2E777F
3D5995C3
BDC236D4
BE61E080
BE3EEAA4
BBF25EE0
3DF7625B
3D0CCB59
BC4382FE
3CA2B783
3E2A2948
3DEE92A0
3D8E7F25
3B96144F
3D559B7F
3D854117
BDE26C12
BE064B43
BE0F7F24
BAADE93C
BCDC3DE4
3D9BB1B3
BE35D59B
BE001F33
BDC05B2E
BD223754
3DF4133D
3E2E702A
BD55F152
BE676DFA
BE4D9CAA
BDDBDE31
BD2ED53F
3D390C3C
3DAAB623
BD57B6E7
BD7F97C6
BD9BCA65
BE1FC3AA
3D3F6415
3E0EED29
3CACDF72
BCA1090E
BECDEE1F
BE3E4350
BD699028
BD860054
3D4A84E0
BD9E918A
BD55E62F
3C925FE8
BC41467D
3B18B52D
3DE7B878
3DE1EE49
3CF09CD6
3D49A614
3D678E7E
3B0DF686
BDCFCD6F
BE495B5C
3C46C174
BDB54929
3CC2823B
BD73F0CE
BD14DC2F
BD1392A6
3DD5272E
3D9D079F
3D5F2DAB
3D67977D
BBBAEC88
BCC2C24F
BE424E56
BD80276B
BD6F3E7F
BD559D15
BDD87F2C
BE161A73
BDD732C1
BD02494E
BD10353B
BDA8E864
BDDBEA9B
BD36C063
BD81B5D0
BE0C4F20
3BD8851F
BE33D9C1
BDC37D24
3C2D0AA0
BE25F71D
BEB83222
BE9AEB7D
BEBFFB71
BE5DAB88
BE34AA71
BD90B0F0
BE818C04
BDB016C1
BC6A1221
BE643CA8
BDAC65F5
BCEF9A59
BCDFB7A4
BEB24FCE
BF077B8A
BECF3247
BEBCF100
BDA3AE0D
BD4D164B
BE24AFC5
BE29AA08
BE33CF5B
BE56BEBB
BF23F832
BE416020
3E627238
3E0F9505
BD972CF8
BEA2C2F9
BE93EDDB
BDFCB6D8
3D951551
3D44A82A
BD2A6A1F
3DBD42FC
BDB33674
BE2564E1
BE9B6A65
BE3040FC
3D9F6C5D
3E48D6C6
3D215387
3E29D699
3C9039A2
3CE6507B
3E20F0FE
3E4BBCBA
3E03DF72
3D730C94
3D6A84F0
BD07E80F
BE0FA37B
BD56F856
3CDA9C70
3E6572ED
3D822149
3E3BBF28
3D17AA65
3D56945E
3E4459C9
3DF8631D
3D081CDD
3E027965
BD9060F2
3D022D2E
3DC68238
BDE06A10
3D97CBEF
3E825378
3D404870
3C3B5471
BCCBC7D6
3D0C2601
3E2D8DC8
3C2300BB
BDCFDACF
BD379885
BD12D488
BD02E204
BC6F2338
BE06AD45
3D115A64
3EBAF931
3DD8C771
BB922D27
3B998F7E
BE2F444A
BE2151A7
BE6CBC2C
BE5B613A
BE438F92
BDA34726
BDCEA143
BE5AB0D9
BD9F0705
BDCD1A3F
3E9ACAD6
3DC78FBC
3BFEEF46
BCF7F922
BEAFA29A
BEB9D0B8
BEAD5441
BEA86817
BE49BDAD
BEA3F87A
BE61F2B5
BE254F74
3C569F97
BDB3F916
BE48C3AA
BCFAADA5
BD467247
BE09441E
BE6B46EF
BEC3C7C7
BF1C158D
BE981E3D
BD8E7F73
BD1A3344
BDE78736
BE033C48
BE0CF084
3D1FEC7F
3BC66D5C
BCC7F594
BD9EA919
BD8DD438
BD8A81F5
BC15FEBF
3D279381
BDD09F4E
BE388076
BE85643F
BE8227D6
BD7AFDF9
BD0BF52D
3E19815C
BDB8E205
BD25E124
BDE326A6
BC002D81
BD1B7E9D
3D14E8E0
BE84A722
BF01276A
BECBE04B
BF1FDDDB
BEBB4222
BE237B8C
BDE7A116
BD941BB1
BC92E4D7
3C1D31F6
3BAAEA07
3E41025B
3E8E46F5
3E343F40
3E267F43
3E20C726
BE713448
BF3BDB26
BF0F321C
BE3AF2FE
BE556B29
3E650691
3E22F298
3B5AF1C0
3DFD3DB5
3E38B52A
3E9409A3
3E235001
3DA9CC48
BD0EB87D
BE5F6512
BEAB3CF8
BEE86A5E
BE86DBFE
BE92A9A1
3CB146BE
BDBD7B18
3D87190E
3DD4B718
3E3F13DC
3E60422F
3E19B9CF
BC4E1F93
BB785436
BE5C063C
BEA9DA32
BE5049C5
BE3AE764
BD7FC35F
BC53C0CC
BDCAB89B
3E160BB2
3E5B55FA
3E59968F
3E404001
3E0924D5
3DF9D3E8
BE04A261
BE3B417B
BDEE4AFA
BD484361
3D8367FD
BC9F080F
BCD50313
3E0EC019
3CCEB0C7
3D8B7AF9
3DE45150
3E245C2A
3DEA7DA6
3E1CD1DE
BC55C707
3DF20FF8
3C54A9F0
3E5B9AE9
3D6FD82B
BD56739E
3D121C8C
BD5E327D
BDDB807A
3E119A9E
3D490CB0
3DED1B33
3D89AE12
3E0EA920
3D87AD68
3DF4EB47
3D3AFACA
3DEC1F23
BCAE7894
BEFB363D
BE0E04E7
BE1DA56F
BDAF049C
3D42371B
3DD7B209
3E3DC14A
3E230AE0
3E304B07
3D38C5FA
BD82D7B5
BDEBD07D
BE1A55C7
BECD4AE8
BE5F79D5
3D6A918F
BCDBF7A2
BDAC45A7
3C2D98B3
3DB9C95C
3E5AA869
3DA3D2D4
3E06EED2
3D9F6820
BE069422
BDE6C2DE
BDB1D6DB
BE3BAD93
3D96AA87
3DEDC352
3CDA25BF
3D8C3EA6
3CA30B01
3E37DFF0
3D6A69F1
3DF857AB
3DB79380
3D3024FB
BDE56D90
BE5055D0
BE2ECF28
BD9C2169
BD6D967A
BD1D4879
BD4EE3E4
3D0868D6
3DDF7A28
3DC08F87
3D9FABCE
3D0C6271
3CCACC52
3C601E02
BDB0E7B8
BE0EC087
BE31141F
BC1FEBAD
3C5687F4
BD91B5C2
BE2563FB
3D13E5D1
BD51C92D
3DEC5C1D
3C04DE4E
BC9A752D
BD75D0EE
BDD6F0F6
BCAFBB2A
BBC24705
BCE88C82
BD0CEB65
BE044DD2
3C6FDE1A
3BB3CB20
3DD03F60
3D5303BF
3DBB2611
3DA247C3
3D47804F
BCE8EF70
3D4B7573
3C895C42
BC9BEC6F
BD72AFF5
BD93FAD4
BE3CC5F5

