BC981C58
BDFF7612
BDFE4E88
BE2E08EC
BE4D1622
BEEAB70E
BE680569
BB3162EF
BC8CE249
BD524914
BDA9965F
BDADFAC1
BE8DF534
BD04B508
BD6872CD
BE1846D8
BE9937B4
BF1DB72F
BEFA7F35
BEA6E765
BE144C06
BC53CB45
3D8E9E55
BD1F5CE6
3D14C59A
3E0EA8B6
BE33F256
BE9AACDD
BDA57174
BED3A144
BE906376
BE0F5084
3DFA803E
3E6378EE
3E518044
3DFCA573
3D6A3EAC
3DC20F35
3D9987B7
3DF86418
3D282F92
BDE588F2
BEA05541
BD562AC2
3D05B408
3DECFEC8
3E3B90AD
3E51576C
3E5AF905
3E4EC095
3E5402D9
3D52CC28
3D829790
3D95763D
BA29F414
BD5EB74B
BE8273E3
3E2DC45A
BD3225F1
3D1E998D
3E07335D
3D9E6CE1
3D904294
3DF2E631
3E02FBCF
BA87F7BC
BCCB6F26
3D9A6C40
3D875AA7
BCF03348
BDB27D30
3D0727D7
BDC6C72F
3D6AC4BD
3DF27903
3BDDC61D
3DC2BE23
BB7195D4
3D89B5BE
3DA754EB
BD9DB37C
BDA05A4E
BE1E13EB
3DA0D496
3E4892C3
BDD6EBAE
BDBD4FD2
BC82446E
BD13704B
BCE34E9D
BDC9E764
BE987D0A
3D974ECB
3DF29BEA
BD2F32FA
BDBA8811
BDCD9061
BEB13B2A
3D52F7D6
BD0D0160
BD2875F6
BD9DB7E7
3CA852E1
BE029371
BE9C9866
3D8FBBF9
BDF4E955
BDB00563
BD19E191
BB1567AB
BE3806D7
BED99A16
BEFA902A
BD3EC6F8
3B05ACEE
3D892FFF
3D36D5C5
BDD5696F
BE1F3F67
BC65EDB6
BDF66032
BDBD5975
BD8C5A4E
BDA3F97C
BE214CDD
BE0DCF26
BEBF334C
BEA1B299
BD323B0A
3DAA2201
3C487317
BDBA4867
BE19206F
BDBFA4A4
BE2E26EB
3BDE6736
BDCC2CD9
BDD40921
BDE865C9
3D36DF5F
BE5F49FE
BD99CDFA
3DC854D7
3D813F32
3CA5ED80
3A8D104B
3D471EF5
BD0CB7E8
3D9CC73F
BB294AC0
BD72F03A
BE702310
BD63F7B8
3E164FEA
BD333629
BD887DC8
3E33E91D
3D8F72B7
3E10744A
3E013BB5
3D5AFAC0
3E0C2F64
3D388408
BCE06D6E
BD8F07F4
BDF4E124
BBB1F526
3DF8A7EB
3D665E9B
3E50045E
3D5D9364
3E01800E
3C93D652
3D915D94
3E026E92
BCC3EEC0
BD630BD5
BE4E917E
BD4400C6
BDFA6DB7
3DAEBA0E
BAFBB7F7
3DE17AF0
3EEA4223
3D824F95
3EC7E934
3E5B660E
3E65E791
3E8EB78C
3EC1E1F4
3E56E4B7
3DE9F188
3D5C1E68
BD9E314A
BD913B50
BE741BE3
3C5D39FB
3E3276ED
3E29F5A3
3ADD4325
3DEE735F
3D1BBDB7
BD36BCAB
BD17C093
3A2F7BF3
BDE80DD4
3CABCA0B
3B9DEA34
3E15A6D6
3E05C255
3D350741
3DB836F4
BD9EBC71
BDE21BC9
BEEBA3F4
BE91B3C3
BED6CBD5
BE082E1B
BE9CCEFE
BD48F99F
3D8D1222
BE579DCD
BE1866DF
3D33B609
3DEFF087
BE4A344D
BEE120AE
BF64B175
BF845148
BF18D9CF
BEA3C669
BE4CB07B
BDDAD56E
BE3A62C1
BE780EDE
BDFF01F3
BEDF7221
BE6AFEA5
BE6A298F
BE61BB0D
BF156A97
BEE2AF46
BF0FC957
BD4AD09E
BE8A2A4F
BE686C47
BEA01691
BE87253D
BE92FFEC
BE31F21E
BE4E6CFB
BE8E5896
BE999BA8
BE8EFE8C
BE60241C
3CDA8E62
3D2A848B
BE09E46C
BD582018
BE17E2D3
BD484EEA
BE50218F
BE21FFEF
BD9E0C5E
BDE6F3FB
BE0BCF42
BDC89E7F
BCB47230
BE4CA566
3D505D38
3E043105
BD3F8EC5
BD743443
BE353A8A
BD0B14D3
BCBF9518
BE10A461
BE009DE4
BD61A46F
BDCE1621
3DE5DB05
3D7E17FA
BDCFCD6C
BD28B819
3D4C4C4D
3CEE28AA
BD9F7678
BE4A6548
3BC9FCBC
3E26B0C7
3DEF9D69
3D096DC1
3D1945EC
3D2ADF30
3D8FC353
BD3B1AC9
BD476E3E
3D6460D1
3D146688
BE826678
BE2DEDB6
BC32A672
3E08A17B
3E13E7C1
3D204DD8
3E14882D
3E12D53F
BDE0AFD8
BE1FA68D
BDC63B55
3D7AD68B
BD7DAA73
BE365046
BE8A27E0
BD81EA53
BD332158
3C9AEBF1
3D411F45
3D5EA3BA
BB30EF82
BD080916
BE5A620B
BE63DCC5
BE610D50
BD516847
BD4BB55E
BEA953DD
BE9B6D11
BDA0C1F8
3CD2B0FC
3E1E76B2
3CD10550
BCDE4D8A
3D8DB20C
BA995C5D
3CBEF707
BDEB3AD9
3CE8F5D0
BDB49293
BE0F5001
BEBED9A9
BE1CD8B0
3E227411
3D8C1915
3DCEA4B7
BDD1AA0C
BBAB34B0
BD3C5681
BDF00905
3E212B41
3D9897DC
BE5BD32C
BDA4FE9C
BE4CD563
BE23DAE0
3D855726
3E114178
3AA5BF61
3D1C6D0C
BDBE2CC9
BD83E175
BE1EF1E5
3DA7CDC9
3E2372B5
3C7DDBB7
BB02A088
3E54EDEA
BD129870
3DFE734C
BD148DFC
3C58FE9D
BCD32B3A
BD87B753
3C6CF3A1
BDF78B61
BD91BE9C
3D5E4EE4
3D86E6C3
3CC400BB
3D27B4D8
3E091CE6
3E4817E2
3D8D0EB9
3D06C23C
3E31C3E7
3DA1DF59
3D8C1AF2
3D5DAB14
3DB61E3E
3E24BAF0
3D899B6B
3D0415BD
BD8C90CE
3959629E
3D16E3B1
BE1F5D13
BE2584AA
BE3BD937
BE8706AC
BE6A6A7B
BE3DBABA
BDF4AE3E
BE1EC65D
BDB9CFA6
3CB1FDCA
3D5D879A
BC966D31
3C850513
BE5AD987
BE6DAFD5
3CB0F0E4
BE4529EF
BED52E95
BEE19C9D
BF154F80
BF3264EB
BF12A829
BEAB56A0
BE1F79E6
BDA4C8D4
BE0352C7
BE605B91
BD413637
BDA61F14
BD811568
BDDD22F2
3CB4397F
BDB61F0F
BE068574
BE0620F1
BF067422
BE8F3C72
BEAF9B96
BE1F55E6
BDE01D7D
BE1E95E1
BE02541C
BE0C1E5D
BDF7325B
BD998509
3DA0B127
BD9AA103
3D8F4C8F
3CA1C5C1
3D65054D
BD06B88A
BDD7AA1E
BD80D282
BD6050FF
BD8E6294
BE7C1D81
BE857F6B
BE8C6233
BE9C660A
BD2AD569
3D389E2F
3E05ABC0
3D046E57
3C97544A
BC0639B8
BE45980E
BD2B7F45
BDCA6F16
BCC10620
BE50E6FD
BDF64692
BCE1FAD1
3DE61C51
BD231187
3D973DB3
3CC1F0C7
3D9D926F
3E147768
3D83A693
BABF9579
BE704648
BD86EA4B
3DF0FC0D
BCFE6CFE
3E1663AD
3E02B76E
3E1EAB52
BDC4B33D
3D891136
3DCD17EC
3DFB0D8B
3E2A8487
3D78AE2C
3D37AD74
BE280A61
BE6617BD
3E3396CA
3E1D88D4
3E14518E
3E8DE02D
3DC840E1
BE4FD9E0
3D10BA53
BD354B83
BCEB4BC3
3D2CE4C6
BD88729F
BE275C16
BD4240CF
BE99F68A
3D65AE51
3E163112
3DF11D5C
3E233572
BD0025F6
BE9B126E
BE46E1C1
3C91EA7C
3C278CA8
BD409C53
BD5072AD
BE91135F
BD94EF49
BE97C14D
3BE5C9DA
3D9A6CCC
3DE2CC9A
3D893E19
BD7BAE7B
BECE982F
BE1A07A3
BE07B0D2
3B30EB73
3C444AE1
3DA2BE1B
BE134A8D
BC90699A
BD1AC2E9
3CE13BBF
3DF0B489
3CB6E298
3DA3217A
BE039620
BE6BDA30
BE25CE20
BD540BFE
BDDDE000
3C814308
3E0C97EC
3E001283
3B8B1FCF
BD9A60C0
BDE09C8B
BCAD34DC
BD8E178B
BE06DEB7
BD77C840
BD4A5DC6
BD32A90A
BDB66A56
3C71E20E
BBB49F94
3D8262A8
3E78E2CB
BDA3639B
BDE09447
BCB890E5
BE4018F3
BE82D54E
BE11E45C
BE2B3208
BD3DB4D3
3D142721
3E1D539E
3D183342
3E0DD272
3DA1E99E
3E6E21A3
BDF717BB
3D546983
3D0E53CC
3D82DA36
3DB6190B
3E75030D
3E864DB0
3E881337
3E946F5A
3E593A68
3E0FE86F
3E63C165
BDCC6206
3B879B55
3D6C4B85
3E1136B6
3E03C893
3CE801A6
BE4646B6
BDDFA5C4
BCC3DC79
BE0ED5B2
BDED9B57
BDC974F0
BCB26307
BDC8C5E7
3E5D3E0A
3E468A58
3E3831E7
3E84BA90
BE081319
3CFE9834
3DF1448B
3DFFEA62
BDB22344
BE144930
BE7AB7FB
BE3B9020
BEA63BC6
BE681B66
BEDE585C
3E0C94E9
3E81C7B4
BE97A385
BDE43B7A
BD8F8C97
3B1F2C9A
3DFC3F39
3EBABBF2
3F1EFCFE
3EF0B53E
BDB5C797
BEEA1335
BF0F1A27
BED7BDD4
BE547530
3E2D8766
BDED7A2D
BE07A3A1
BC214726
3DDFDAF0
3DEBD2B0
3E240263
3D80545E
3E0F4E5E
3E3AEF8A
3D17FD47
BD7F4F9C
BE99F20B
BEDD197A
BE1A7523
BE73509F
BA56DD8E
BCEB00B8
BE57C6A0
BE0FA20F
3D7E3028
BD3EF6F3
3B42DA8F
3D9591FF
3D44D068
BC914B99
BD8AB48B
BE0067C1
BEA08D09
BE3DF7AA
3D38FFED
BD45B722
BE35A821
BE30AA19
BC3F4C16
BD0E9A28
BDE828C5
BD646CD5
3DA75796
BDEDCACF
BE73281D
BD1A58C9
BE3CC33F
3CE43EE9
3D36793A
BDA31E80
BE0D9011
BDEFAAB5
BC881DEF
3D3FBD24
3CB23C49
BDB5CDBB
BDCE20D6
BE5E23A4
BE81EAAA
BE16315E
BDF0823D
3D9D98AB
BC4882B0
3BD7E637
BDDEE331
BB30C8C1
3DD57CBF
3E3B061B
3E21B93C
BB81BF6A
BDE9ABF6
BDAE9B40
BD9EB283
3BBFA12D
BD3A2ACA
3D5FAF38
3D61971D
BD47EE2E
3B91D1BA
BCF849DB
3E5B32FA
3E502765
3E100FC4
BCD121C9
3CD2E908
BE19F25E
BDD4E591
BD8CBC34
BD989A9E
BDA82DD3
BDB4FC2A
3C22D321
3B8F4D1A
3D8126D6
3E284168
3D89C1B1
3BF3C365
BDBE52F8
BDD84465
BE764454
BE0A039E
BDBA550A
BEA1B248
BE163CE1
BDD3D6A8
BCC2AAB5
3E0943BA
3E4583DB
3E8486BE
3CEE3826
BDB008BA
BD8FDC88
BE45E20A
BE91175A
BE1A7313
BDDD6F35
BD2CBB10
BDAA3F83
BD35634F
BD19908A
BD035599
BD0BF67A
BD2A895E
BE166C54
BD67556F
3CABBE19
BD20FAFE
BDE4FCC7
BDCA0078
3D897F07
3E92B24D
BDE19DCF
BDE7F41E
BD883915
3D2613B8
BD1DB267
BE0718C1
BDE43866
3C4DC179
BD835DEB
BD98F229
BD0B4282
3CDE4567
BC3F1454
3DD6A326
BD29A501
BD39EE62
3DBD054D
3D90F010
BD4746E7
3BE270FC
BDB3E0D2
BD8C1168
3D127B9B
3DB38074
3CE7D9F8
3D268A54
3D664C80
3E3976B4

