3D217F06
3E14B495
3D81D3A2
BE0BB5B8
3D91991E
BD4A96D1
BD97AD2A
3CB81DE0
BE0062A2
BCF5DD72
BD2545B4
BE0E90BF
BD926788
BD66579F
3D5F1C88
BE018CE3
3DB1B89E
BE4C3214
BDA4F716
BE070261
BD015426
BCAF34DF
BBB8C73A
3CBAD098
3D7F1F70
3CF0ED70
BD5D92BE
BE1978D8
BDE73463
BCE5F26D
BDDD2E8F
BDC78B71
BDEFCA92
3D62EBFE
BD97E876
BBBDFE13
3BAE0985
3CCB6D9D
BCB1F101
3C955D53
3DF7ADE1
3C5AB00E
BE72D523
3D8AD2B9
BE604EBF
BDA4518D
3D584671
BD107F32
3C0EE131
3D85ED16
3E1E878F
3D6D0EEC
3DD53279
BC6EA00A
3DF324C1
3D96C6D9
BCED6622
BDD857E6
BE65F8C1
3D757DCC
3B17846D
3DC1CFF9
3D8E4D4E
BC92B813
3D93E1CE
3D49FC4F
3B953B30
3DAB193B
3B97D41C
BD09544C
BE0549FF
BD6FA890
3D6BEFC9
3C5DEC22
3E1AC1D1
3E1CE7EA
3CC2B7DF
BCDAEBAE
BDB98960
BD8E96F2
BD309199
3BE57123
3D2A09F1
BD33B96B
BD83A02A
BE308938
BCBBE214
3E166CF8
3E4EE7E5
3E2A9CD2
3D3DCDF6
BE7508A2
BF075CA3
BE4AC0AC
3BD3A0A2
BD770252
BC827390
BD23C977
BD6AA146
BE0F178B
BD93501C
BC97289E
3DE58A91
3E0128C1
BDC3ED31
BEF44B75
BE836463
BDC00BA6
3C1D6F13
BCD5FED7
BDD0CE90
BDBC5191
3D7B144A
BE4EDECE
BEACA620
BE356F52
BD416BB1
BC5D1D33
3DC9F3EB
BE81E5C0
BE2B0E4F
3D898E9B
3D1D613A
3CFA269E
BCEB3D1C
BE813CA0
BD493753
BEAD6437
BE09EFBE
BDC398F0
BE21A5F6
3C5A0A92
BCE4C69D
3D38F719
3D5F4BCD
3DFCFEE1
BCB6EEDD
BD911717
BB6514AD
BEA2E7FD
BCE6D196
BDEFEB93
BE506310
BDFEB8AF
BCA22F9D
BC8360D4
BCFF61C1
3D0D7516
3E852CF9
3DC59A6D
3DDD544B
3C3E579A
3D6811EB
BE8E8821
BE4E118F
3CC9EFF6
BC4DFDC3
3DA70D02
3C88005C
BD2281C8
BD98E708
3DD92A7E
3D88636C
3D7123AE
3D3C2140
3DA5A74C
BDF32C96
3CEBF196
BD3BD1FC
BE2EE08D
BE8C59B0
BDB605D4
BE8D517D
BEB62080
BECBCC23
BE81DEC1
BE661FDA
BE40586C
BE1C87CD
BE48BA75
BE602CC1
BD5BA016
3C4BDCDF
BDA860AA
BE35647B
BE04ABCE
BE3DB116
BE8DBEB3
BEC05DAF
BF062D0F
BF04999E
BE74CF17
BE7647C2
BE293D3C
BDA8CAA6
3D5AF715
3CD6B8C3
3D7B2908
3E1CF5E0
3E09EB39
3D65709F
3E1B6E74
3DE41FD6
3D8EB958
BD3F0C5E
3E2EA37E
3C5978DA
BDF44FD4
3CE697B5
3D1D9130
3E08704C
3DB37322
3DBF4769
BD8B129F
BE3B7B0C
BE6E1D0B
BE0E9D83
BE264BEF
BD485427
BE9ED11B
BEC06C39
BE6BF561
BD6F40A3
BD9C0E4D
3BBE5988
3D923BCF
BE30925C
BEBE9EF4
BEED68A7
BEEC6C10
BE5F0A21
3DA88542
BDC8C57F
BF05B39C
BE9C75B8
BEADB297
BDCED187
BE3D27E5
BE04C570
3D3031C8
BE69E8DA
BE8F621B
BE9C7790
BE211658
BDC00DD9
BD4D14BA
BD7329EB
BE823EB9
BE4D3C32
BDB3D563
BD4B8041
BD4C8762
BDE82044
BD08F832
BE7BA8F2
BEA293A8
BD6A4F5B
3D57F5C4
3D97EC80
BD506C33
BDF5CCCA
3BB54D31
BE4A74E9
BDDF8115
BD0691C5
BBD48CE3
BE49ACCB
BE67B730
BECACB00
BE61B018
BC56B796
BD1BDC1A
BC5F41B4
3DD77290
3D842B05
3DF18AB5
BD4129FF
3C31EEB5
3E022D79
BC34D911
BE18BCE9
BE2DAA77
BE68100F
BDB17CBB
3E4F100F
3DA38F91
3DF56C30
3DD756DA
3B9EF80E
3DB13AB3
3D8450DE
3DA86845
BC0FA61D
3AE58ABB
BBE33306
BDB659AC
BDB8CABC
3D2CF289
3DFA1AFF
3DF467F9
3DF584BB
3D6B34CB
BDDE87C1
3D2B3CC0
3C977A2F
3E04D596
3D7FD870
BB63F9D4
B989F2D4
3E14BD34
BD58DA45
3EA578F5
3D0F1756
3E1BB9C3
3DBEF4D5
BD6307A3
3D548935
3DA46207
3DEA7384
BD5E969A
3E1CDDB0
3CA4AD5A
3D11CDDD
3C3D646C
BD932360
3E039913
B93353F5
3DC384DF
BBD39FF3
BE072129
3CBE93B6
3D3162B2
3D676CA1
3DB82335
3D15BB53
BD90FB6F
BC2CE08D
3CB9789A
3DA01F01
BD125058
3D1A6A6D
3D9478D9
BBE53993
BDE6C2D7
3D405A0D
BCB95F2B
BD107D56
3DCFC76D
3DAC3BE5
BE582647
3CD4F8C8
3DC4DD2B
BC9E6A7C
BC610D44
BCD54C30
BC8B619A
3D76D7C1
BE066662
BD861FF6
BC5C7CE2
3B474DA5
BD029DFB
3D03CB94
BDE80840
BD21DF72
3B692DA8
BE0DEFEF
BDDF1A70
BBC7D716
BD47FCA4
BD472E9A
BE10AB95
BE15D523
3B83A105
3C604261
3D187F9D
BDA80210
BDE0E202
3DAC22A7
BC53CF19
BE02D042
BE113B51
BE27A730
BE0BFE32
BEA5EF20
BEA76922
BEA17F3E
BE86116E
BED0DFE7
BE68E348
BE6D6869
BCB0C85F
3DC02F6D
BCCD5C02
3DB7A0F9
BD4D5E23
BE092516
BE35E282
BCFD57EB
BD6CA9B4
3C9DF2EE
BDDEF7FB
BD2C0ABF
BD1D4615
3C95C486
BCEE0189
BD59E4A8
3DC26CFB
3DAC0387
3CB3AF18
BBB0A8F1
BCAA742A
3D59C967
BC984315
BD8D5671
BDFF3C4C
BD09E07B
BE7335D9
BDC9EE8C
BCA3D99F
BD92AC49
3D224987
3D131435
BD83ADF0
BCD22F4B
BE075265
BDBC5349
BD922F10
3DFDE066
3D506727
BCC7A0D3
BE32203E
3CE7B3D2
3D254280
BC7746D7
BE9134E7
3D2B0DC2
BE01630E
BE01D3CA
3D08104D
BBFE2932
3C8A5915
BCB2A162
3C910257
3C4A7ECD
3DC36DE5
BDDCC042
BD6EB537
BD53DF98
BE286710
3CE645A1
3BA48CE3
BD0D986C
3C326475
3D5BBEB3
3E208E4C
3E5B9677
3DFB059F
3DE5BB41
3E0F8E3F
BD5901D8
BE6D46D4
3DB814D3
BD4B2B6A
3B12FF11
3D54338A
3D1BA724
3C08A31D
BE121968
3E2969E8
3E769728
3E6D79AA
3E078210
3E36ADDB
3C8E6476
BE6A8C89
BD5DA4C5
BDA28E84
BC561DB1
BBCAA7BC
BD13BE4C
BD378F38
BE226053
BDAAB9B8
3E12A22F
3C80BAE6
3DCDBE4D
3E573B56
3DA47A0C
BE39ED03
3E1E53EB
BD14CF70
BDF6B222
BB459EB9
3BDA66FE
3CAD1C9F
BD159FA9
BE7419D5
3D914DD7
3CCDD81C
3DA727EB
3E528F71
3E006CE9
BD513EB3
BE2972FB
BE2B926E
BDA03BB1
3D9A03E6
3CF18DEE
3D14F59F
BCD353B2
BE6E6716
BC215174
BD524EAA
BC8A1631
3C82D329
3D7652E7
BD8EBFE9
BD3BCD76
BE9F912B
3D4E92A5
3DD663C5
3C579489
3D674383
3DC275E3
BEA3CB93
BDFB6ED7
BDE71189
BA42663D
BD2D7AF3
BD108E5F
BD31010A
BE70C5EE
BD5681B5
BDBE39E6
3DF48893
3D61F121
3E8155DC
3E5021FD
BE550A36
BDD71A27
BE49E2F1
BE5DB6F8
BE0CC3B8
BE1C6FEA
3DA945B9
BD59039B
3C24348D
3E1A6761
3E4AA92E
3E09C1C9
3E54CEDA
3E4C6E85
BE50FAE8
BEC32899
BEB73011
BE4B3FFE
BE2E369B
BE904CE5
BC3E2311
3CFB4FF6
BD3B8EDA
BD534AB6
3E07CA38
3E82C654
3E690B25
BE2626E5
BEF37D93
BED0107E
BEE7DA52
BEDEA362
BE21304D
BE6F8586
3DBDBE96
3D5A1C14
3D5A0720
BDBCC9D5
BE38AEB7
BC02574E
BE6BDEA0
BEA1FED2
BF0634D4
BF0FF304
BEC6002F
BEB9BF65
BDC5B0CA
BE12798B
BC274537
3E11FA09
BD0B3BFE
BC0EEEA0
BD3BF821
BD9ED1E5
BDBA1709
BCFD3C67
3D5ECCEC
BD133730
BE329A34
3DA72FA7
BC626DAC
3BABB3BC
3DFC36BB
3D9F3C48
3D157F87
3D3D9303
BD1A54A0
3D6F0492
3E1BD475
BD9A6BC8
3D2B876D
BDFDAFF9
BB88A706
3BF0FD63
BD46FC95
BCF44095
3E0E617E
BD893901
BD91D7F8
BDC1296C
B9F7F949
BE7CBFD0
BE483C1E
BE0427B4
BD98A254
BAF2DCBD
3BC878E2
BE3AC020
BE844DCC
BE223762
3DBF317F
3CC14E2E
BDAB79F9
BD75C0FC
BDDBF1C1
BEA2902E
BE29588D
BE24123C
BC52A7B8
3C85E7F0
BE183C99
BE22A305
BE9F67CF
BE99F061
BDCAAFEE
BE30F4E8
3D730BA5
3BBF22B5
BDD4BCB6
BE004146
BD7CB330
BDF52278
BDDB1A15
3D24D138
BD8A2DDB
BD8315CC
BE4B28DE
BE96846F
BD982362
BCB25DA1
3E06CA66
38C3B972
BC0A9A84
3BC565A4
3CEB78C6
BE3ECC6E
BC93601A
BDEC0F4F
BCE8118D
BD817182
BE9F60C0
BEB5BCB8
3DBA56DA
BD44A685
BD7D0D9D
3BCC539A
BE1C03CC
BD963A4C
BE24FF7D
BE5C4992
BD8E7D86
BD4B3294
BD0C1AA8
BE20E862
BEB4AE20
BEDD102F
BE07ACCD
BDBEAD00
BD4CCA27
BD045BB7
BE2F6B42
BE87D2C2
BDF65074
BE75B955
BE1232A2
BE2FDE96
BD51B8AE
BCED7465
BE6EF903
BD13D60A
BE3FD1D3
3D3674F5
3DDCAEB9
BD420EA3
BCF8F40C
BE5689F7
BE9801F2
BEA59210
BEDB0E40
BE0EDE0C
BD5453FD
3D16B660
3B6A0245
3D41695A
3C4251A6
BCE654B4
3DAA6043
BC969090
BC949E4E
3DAD1390
BE187646
BE828A67
3C8FF9FE
3D330A1D
BBB3C32F
3DB103D5
3DE31E94
3DBB2B5A
3C4CA70A
3D059C83
BDC6ACF0
3B9A008C
3AB4CFDF
3C4A4A5C
3C9D93A9
3D67AD3F
3D8ACD66
BCDC9335
3C7FEE66
3D9457B8
BCFADBD6
3C59AF1A
BDB28C71
BC20A0A2
3D82F9A9
BCB48BA8
3D3985C5
3D83D9AD
3DB5BA4A
3D01085D
3CA58DA2
BD0B8A76
BCE39E58
3D40EA94
BDA56839
BD9B5FCE
3C1741B1
3BCB3F30
3DF5A4C5
3E073248
3D899570
3D6F386D
BD1AF62F
3DBA1AFC
3D888946
BDA55CC3
3DD078BA
BD412238
BD5643A8
BD84B635
BD6326F1
BE384918
BC858A6C
3D317520
BD400999
BD912E70
3C0CC8BC
3A1F8804
BB924573
3C8E9FC7
BD685929
BDDA104C
BE07BBDE
BE20ABBA
BD986E71

